{"<|endoftext|>":0,"!":1,"\"":2,"#":3,"$":4,"%":5,"&":6,"'":7,"(":8,")":9,"*":10,"+":11,",":12,"-":13,".":14,"/":15,"0":16,"1":17,"2":18,"3":19,"4":20,"5":21,"6":22,"7":23,"8":24,"9":25,":":26,";":27,"<":28,"=":29,">":30,"?":31,"@":32,"A":33,"B":34,"C":35,"D":36,"E":37,"F":38,"G":39,"H":40,"I":41,"J":42,"K":43,"L":44,"M":45,"N":46,"O":47,"P":48,"Q":49,"R":50,"S":51,"T":52,"U":53,"V":54,"W":55,"X":56,"Y":57,"Z":58,"[":59,"\\":60,"]":61,"^":62,"_":63,"`":64,"a":65,"b":66,"c":67,"d":68,"e":69,"f":70,"g":71,"h":72,"i":73,"j":74,"k":75,"l":76,"m":77,"n":78,"o":79,"p":80,"q":81,"r":82,"s":83,"t":84,"u":85,"v":86,"w":87,"x":88,"y":89,"z":90,"{":91,"|":92,"}":93,"~":94,"¡":95,"¢":96,"£":97,"¤":98,"¥":99,"¦":100,"§":101,"¨":102,"©":103,"ª":104,"«":105,"¬":106,"®":107,"¯":108,"°":109,"±":110,"²":111,"³":112,"´":113,"µ":114,"¶":115,"·":116,"¸":117,"¹":118,"º":119,"»":120,"¼":121,"½":122,"¾":123,"¿":124,"À":125,"Á":126,"Â":127,"Ã":128,"Ä":129,"Å":130,"Æ":131,"Ç":132,"È":133,"É":134,"Ê":135,"Ë":136,"Ì":137,"Í":138,"Î":139,"Ï":140,"Ð":141,"Ñ":142,"Ò":143,"Ó":144,"Ô":145,"Õ":146,"Ö":147,"×":148,"Ø":149,"Ù":150,"Ú":151,"Û":152,"Ü":153,"Ý":154,"Þ":155,"ß":156,"à":157,"á":158,"â":159,"ã":160,"ä":161,"å":162,"æ":163,"ç":164,"è":165,"é":166,"ê":167,"ë":168,"ì":169,"í":170,"î":171,"ï":172,"ð":173,"ñ":174,"ò":175,"ó":176,"ô":177,"õ":178,"ö":179,"÷":180,"ø":181,"ù":182,"ú":183,"û":184,"ü":185,"ý":186,"þ":187,"ÿ":188,"Ā":189,"ā":190,"Ă":191,"ă":192,"Ą":193,"ą":194,"Ć":195,"ć":196,"Ĉ":197,"ĉ":198,"Ċ":199,"ċ":200,"Č":201,"č":202,"Ď":203,"ď":204,"Đ":205,"đ":206,"Ē":207,"ē":208,"Ĕ":209,"ĕ":210,"Ė":211,"ė":212,"Ę":213,"ę":214,"Ě":215,"ě":216,"Ĝ":217,"ĝ":218,"Ğ":219,"ğ":220,"Ġ":221,"ġ":222,"Ģ":223,"ģ":224,"Ĥ":225,"ĥ":226,"Ħ":227,"ħ":228,"Ĩ":229,"ĩ":230,"Ī":231,"ī":232,"Ĭ":233,"ĭ":234,"Į":235,"į":236,"İ":237,"ı":238,"Ĳ":239,"ĳ":240,"Ĵ":241,"ĵ":242,"Ķ":243,"ķ":244,"ĸ":245,"Ĺ":246,"ĺ":247,"Ļ":248,"ļ":249,"Ľ":250,"ľ":251,"Ŀ":252,"ŀ":253,"Ł":254,"ł":255,"Ń":256,"he":257,"Ġt":258,"Ġa":259,"Ġs":260,"Ġw":261,"nd":262,"Ġthe":263,"ed":264,"Ġand":265,"Ġto":266,"Ġb":267,"in":268,"Ġh":269,"Ġwa":270,"re":271,"ou":272,"Ġf":273,"it":274,"Ġc":275,"Ġl":276,"Ġd":277,"er":278,"Ġhe":279,"Ġm":280,"Ġp":281,"Ġwas":282,"om":283,"ĠT":284,"Ġo":285,"ay":286,"ar":287,"is":288,"ing":289,"il":290,"Ġg":291,"id":292,"at":293,"en":294,"Ġn":295,"Ġsa":296,"Ġha":297,"ĠThe":298,"ĠS":299,"an":300,"im":301,"or":302,"on":303,"Ġit":304,"Ġth":305,"ll":306,"le":307,"ĠH":308,"ot":309,"Ġher":310,"et":311,"ir":312,"ĠShe":313,"es":314,"ĠHe":315,"Ġin":316,"ver":317,"ut":318,"ow":319,"ĠThey":320,"ck":321,"Ġe":322,"Ġy":323,"Ġu":324,"ld":325,"oo":326,"Ġsaid":327,"ily":328,"ig":329,"Ġr":330,"Ġ\"":331,"Ġbe":332,"am":333,"ĠI":334,"Ġst":335,"ke":336,"ce":337,"ve":338,"Ġshe":339,"ith":340,"pp":341,"Ġwith":342,"Lily":343,"On":344,"Ġon":345,"Ġyou":346,"ked":347,"Ġof":348,"ri":349,"nt":350,"Ġpl":351,"Ġhis":352,"ad":353,"Ġso":354,"very":355,"Ġday":356,"Ġthat":357,"Ġup":358,"Ġplay":359,"Ġhad":360,"ĠLily":361,"st":362,"Ġthey":363,"Ġwe":364,"Ġmom":365,"ĠB":366,"Ġfor":367,"el":368,"un":369,"ould":370,"'s":371,"The":372,"my":373,"Ġli":374,"ch":375,"Ġhapp":376,"Ġwant":377,"ent":378,"Ġsh":379,"itt":380,"out":381,"her":382,"Ġnot":383,"Ġdo":384,"se":385,"ome":386,"ly":387,"Ġvery":388,"ound":389,"end":390,"all":391,"Ġwh":392,"Ġk":393,"ime":394,"ittle":395,"Ġtime":396,"al":397,"Ġlittle":398,"ĠM":399,"Ġne":400,"ht":401,"Ġthere":402,"Ġis":403,"Ġhappy":404,"Ġbig":405,"Ġre":406,"ĠIt":407,"Ġsm":408,"Ġbut":409,"ĠĊ":410,"Ġan":411,"Ġsaw":412,"ack":413,".\"":414,"ry":415,"riend":416,"Ġfriend":417,"Ġas":418,"ra":419,"One":420,"ide":421,"ake":422,"'t":423,"ug":424,"!\"":425,"Ġloo":426,"Ġwere":427,"ter":428,"ved":429,"Ġlo":430,"ore":431,"Once":432,"ec":433,"Ġtoo":434,"Ġhim":435,"Ġbo":436,"Ġgo":437,"Ġse":438,"Ġare":439,"Ġj":440,"ĠTim":441,"Ġwanted":442,"ard":443,"irl":444,"ill":445,"Ġthem":446,"Ġupon":447,"Ġgirl":448,"Ġout":449,"Ġat":450,"Ġtheir":451,"ur":452,"ind":453,"fu":454,"way":455,"Ġdid":456,"ĠA":457,"Ġsp":458,"Ġsmil":459,"Ġcould":460,"hen":461,"Ġhave":462,"ain":463,"hed":464,"art":465,"Ġex":466,"rom":467,"Ġcan":468,"Ġwent":469,"ĠBen":470,"Ġar":471,"ic":472,"lp":473,"?\"":474,"ful":475,"ood":476,"ĠJ":477,"Ġfriends":478,"hing":479,"ight":480,"Ġnam":481,"Ġkn":482,"Ġall":483,"Ġhelp":484,"Ġsay":485,"um":486,"ark":487,"one":488,"Ġback":489,"You":490,"ĠTom":491,"Ġfun":492,"Ġcl":493,"are":494,"Ġno":495,"Ġle":496,"op":497,"Ġsc":498,"Ġnamed":499,"Ġal":500,"Ġsmiled":501,"oug":502,"Ġman":503,"elt":504,"Ġloved":505,"side":506,"ick":507,"ĠOne":508,"Ġtoy":509,"Ġlike":510,"Ġasked":511,"Ġfelt":512,"Ġfe":513,"Ġlooked":514,"Ġsee":515,"Ġme":516,"Ġsome":517,"Ġaround":518,"ame":519,"omet":520,"Ġro":521,"ĠW":522,"Ġbr":523,"ure":524,"Ġbir":525,"ĠTimmy":526,"ice":527,"get":528,"Ġwould":529,"Ġboy":530,"Ġstart":531,"ong":532,"ss":533,"Ġbird":534,"Ġfa":535,"Ġsomet":536,"dd":537,"Ġag":538,"ings":539,"Ġmake":540,"ade":541,"Ã¢":542,"âĤ":543,"âĤ¬":544,",\"":545,"Ġwhat":546,"Ġwor":547,"ĠYou":548,"Ġsays":549,"king":550,"ĠBut":551,"own":552,"Ġran":553,"Ġaway":554,"Ġtre":555,"ie":556,"gether":557,"ared":558,"ag":559,"oud":560,"Ġstarted":561,"if":562,"Ġmade":563,"Ġcar":564,"Ġsomething":565,"Ġtogether":566,"ther":567,"Ġpark":568,"Ġco":569,"Ġsad":570,"ited":571,"Ġother":572,"Ġnew":573,"Ġput":574,"Ġfrom":575,"ell":576,"Ġhug":577,"Ġla":578,"Ġexc":579,"Ġpr":580,"ĠL":581,"ble":582,"ook":583,"Ġagain":584,"ach":585,"Ġmu":586,"Ġgood":587,"Ġhome":588,"Ġwhen":589,"ep":590,"Ġwho":591,"ried":592,"Ġfl":593,"Ġch":594,"est":595,"Ġfound":596,"Ġthen":597,"pped":598,"hat":599,"Ġdec":600,"as":601,"Ġwal":602,"Ġget":603,"Ġplaying":604,"qu":605,"nn":606,"ought":607,"Ġsw":608,"ĠE":609,"uck":610,"pl":611,"Ġliked":612,"ally":613,"Ġthings":614,"ous":615,"Ġgot":616,"Ġexcited":617,"ro":618,"Ġbl":619,"ided":620,"ara":621,"Ġyour":622,"ave":623,"ĠMom":624,"Ġcame":625,"Ġevery":626,"Ġdecided":627,"ĠD":628,"Ġdog":629,"ax":630,"Ġscared":631,"Ġv":632,"ust":633,"Ġone":634,"Ġdown":635,"ouse":636,"Ġcare":637,"nna":638,"Ġfind":639,"ist":640,"ny":641,"ap":642,"Ġbec":643,"They":644,"Ġthan":645,"ue":646,"Ġfeel":647,"Ġwill":648,"Ġdad":649,"Ġmy":650,"Ġab":651,"udd":652,"arn":653,"Ġlook":654,"our":655,"Ġke":656,"Ġgr":657,"Ġgra":658,"us":659,"nder":660,"ess":661,"ways":662,"Ġpo":663,"Ġdidn":664,"Ġtook":665,"fe":666,"ers":667,"Ġabout":668,"Ġtoys":669,"Ġalways":670,"bb":671,"ant":672,"ĠSam":673,"Ġlot":674,"Ġball":675,"Ġkne":676,"Ġmommy":677,"ise":678,"Ġtree":679,"Ġoutside":680,"Ġthought":681,"ĠF":682,"Ġmore":683,"Ġta":684,"ened":685,"ite":686,"Ġlearn":687,"Ġho":688,"ched":689,"ret":690,"eci":691,"Ġknow":692,"Ġint":693,"ged":694,"Ġold":695,"Ġsor":696,"Ġcat":697,"Ġtake":698,"Ġlaug":699,"ive":700,"ecial":701,"Ġspecial":702,"ĠMax":703,"ia":704,"Ġknew":705,"udden":706,"Ġany":707,"Ġtr":708,"Ġpe":709,"fter":710,"Ġhow":711,"Ġsorry":712,"uddenly":713,"ink":714,"ma":715,"Ġshow":716,"But":717,"Ġrun":718,"ish":719,"Ġsl":720,"au":721,"Ġtw":722,"Ġmuch":723,"and":724,"Ġhand":725,"Ġor":726,"Ġhouse":727,"Ġop":728,"ven":729,"Ġmo":730,"Ġsk":731,"Ġclo":732,"Ġtried":733,"Ġsun":734,"Tom":735,"Ġwater":736,"Ġinto":737,"Ġinside":738,"ank":739,"ump":740,"ate":741,"Ġtold":742,"Ġgave":743,"Ġproud":744,"Ġqu":745,"ĠSara":746,"Ġthis":747,"Ġen":748,"Ġif":749,"Ġeach":750,"ty":751,"Ġheard":752,"Ġover":753,"ace":754,"ĠWe":755,"Ġnever":756,"Ġcouldn":757,"Ġeat":758,"ĠAnna":759,"Ġroom":760,"by":761,"dy":762,"Ġpret":763,"other":764,"ĠEvery":765,"ause":766,"Ġpick":767,"ion":768,"Ġplayed":769,"ak":770,"Mom":771,"etter":772,"Ġexpl":773,"ge":774,"Ġhugged":775,"Ġgre":776,"Ġjust":777,"here":778,"Ġcom":779,"Ġbox":780,"oth":781,"Ġwat":782,"Ġoff":783,"Ġnice":784,"Ġneed":785,"Ġmany":786,"'m":787,"Ġstr":788,"Ġbecause":789,"ile":790,"Ġsmall":791,"gry":792,"iz":793,"Ġbu":794,"ving":795,"Ġjo":796,"Ġfo":797,"Ġlong":798,"ine":799,"imal":800,"Ġsn":801,"Ġanimal":802,"uc":803,"Ġbear":804,"ort":805,"Ġtry":806,"ough":807,"urt":808,"Ġunt":809,"sel":810,"Ġlearned":811,"ild":812,"sed":813,"Ġuntil":814,"Ġlove":815,"Ġkind":816,"ĠJack":817,"Ġbetter":818,"ft":819,"Ġflow":820,"ĠMia":821,"Ġim":822,"Ġdon":823,"He":824,"Ġcall":825,"urn":826,"Ġend":827,"ull":828,"Ġbest":829,"Ġcle":830,"em":831,"ĠAnd":832,"ady":833,"ars":834,"Yes":835,"ream":836,"urp":837,"ves":838,"Ġad":839,"aut":840,"vent":841,"Ġfast":842,"Ġcareful":843,"ĠJo":844,"ĠC":845,"arden":846,"Ġgarden":847,"Th":848,"ber":849,"Ġbeaut":850,"Ġfi":851,"Ġthanked":852,"Ġjump":853,"Ġche":854,"Ġsky":855,"pt":856,"ies":857,"Ġbra":858,"Ġeven":859,"ĠSo":860,"Ġlaughed":861,"ase":862,"Ġloud":863,"Ġte":864,"It":865,"Ġby":866,"lly":867,"ĠHer":868,"self":869,"Åĵ":870,"iny":871,"Ġgl":872,"Ġlist":873,"wn":874,"lew":875,"Ġcome":876,"Ġbeauti":877,"Ġhard":878,"Ġhurt":879,"Ġbeautiful":880,"Ġstill":881,"Ġway":882,"Ġra":883,"Ġanimals":884,"Ġwo":885,"Ġfam":886,"Ġlots":887,"Ġunder":888,"ĠThen":889,"Ġlet":890,"Ġstay":891,"hes":892,"ning":893,"ect":894,"ct":895,"be":896,"Ġboth":897,"ĠÃ¢":898,"Ġbad":899,"Ġsafe":900,"Ġcu":901,"ĠFrom":902,"ĠHis":903,"Ġcol":904,"ool":905,"kay":906,"ock":907,"Ġrem":908,"ople":909,"Ġbook":910,"ree":911,"Ġimp":912,"ast":913,"Ġtwo":914,"Tim":915,"Ġits":916,"Ġshould":917,"Ġlived":918,"Ġangry":919,"ress":920,"No":921,"ished":922,"Ġbrave":923,"ane":924,"Ġred":925,"igh":926,"urpr":927,"ucy":928,"Ġwalked":929,"Ġflew":930,"Ġpeople":931,"Ġfamily":932,"Ġsurpr":933,"ob":934,"When":935,"Ġfin":936,"Ġstor":937,"Ġsoon":938,"Ġcalled":939,"Ġshare":940,"ip":941,"Ġfly":942,"Ġdan":943,"fore":944,"Let":945,"Ġkept":946,"led":947,"xt":948,"Ġfore":949,"Ġpic":950,"dded":951,"ised":952,"Ġrock":953,"Ġclean":954,"hn":955,"Ġdoor":956,"Ben":957,"Ġpretty":958,"Ġgoing":959,"ĠWhen":960,"ĠP":961,"Ġkeep":962,"Ġnow":963,"Ġdoll":964,"Ġshiny":965,"Ġnoise":966,"Ġdra":967,"âĤ¬â":968,"Ġwind":969,"Ġcry":970,"Ġopened":971,"ummy":972,"Ġreal":973,"Ġadvent":974,"ary":975,"age":976,"Ġide":977,"Ġbefore":978,"Ġturn":979,"so":980,"Ġsto":981,"Ġcon":982,"Ġground":983,"illy":984,"Ġalso":985,"les":986,"ied":987,"Ġexplore":988,"What":989,"Ġfr":990,"Ġey":991,"Ġidea":992,"Ġcolor":993,"Ġfar":994,"Ġhas":995,"Ġnodded":996,"oon":997,"Ġwar":998,"That":999,"imb":1000,"th":1001,"oy":1002,"Ġpicked":1003,"Ħ¢":1004,"âĤ¬âĦ¢":1005,"kes":1006,"Ġun":1007,"Ġnext":1008,"Ġclimb":1009,"thing":1010,"uch":1011,"Ġma":1012,"ture":1013,"Ġfeeling":1014,"Ġsmile":1015,"ĠDad":1016,"ĠLucy":1017,"aybe":1018,"Ġwhile":1019,"Ġbed":1020,"Ġwalking":1021,"eet":1022,"Ġthr":1023,"ger":1024,"Thank":1025,"Ġadventure":1026,"Ġtruck":1027,"Ġgive":1028,"Ġbeing":1029,"Ġwr":1030,"ĠG":1031,"Ġclos":1032,"Ġthink":1033,"iced":1034,"Ġfood":1035,"Ġpicture":1036,"Ġdif":1037,"ff":1038,"Ġtow":1039,"ted":1040,"ious":1041,"joy":1042,"Ġlisten":1043,"Ġbre":1044,"ught":1045,"ĠSp":1046,"ac":1047,"Ġeyes":1048,"Ġbro":1049,"Ġstopped":1050,"Ġafter":1051,"Ġdel":1052,"Ġwait":1053,"Ġlooking":1054,"Ġown":1055,"ting":1056,"Ġrepl":1057,"Ġvo":1058,"ember":1059,"Ġshout":1060,"Ġflowers":1061,"Ġhead":1062,"Ġwalk":1063,"Ġhands":1064,"Ġgreat":1065,"Ġblue":1066,"Ġever":1067,"Ġwonder":1068,"She":1069,"Ġenjoy":1070,"ĠSuddenly":1071,"irst":1072,"ized":1073,"Ġfish":1074,"bbit":1075,"Suddenly":1076,"Ġnear":1077,"Ġimport":1078,"Ġslide":1079,"Ġnoticed":1080,"Ġquick":1081,"Ġmean":1082,"Ġdis":1083,"able":1084,"Ġsound":1085,"Ġforest":1086,"Ġus":1087,"llow":1088,"Ġapp":1089,"Ġremember":1090,"Ġde":1091,"Ġask":1092,"Ġrain":1093,"lease":1094,"Ġokay":1095,"Ġimportant":1096,"Ġwatch":1097,"maz":1098,"Ġamaz":1099,"Ġshowed":1100,"Ġstick":1101,"Ġwork":1102,"Ġrabbit":1103,"bbed":1104,"Ġboat":1105,"We":1106,"Ġtal":1107,"Ġac":1108,"Ġreplied":1109,"fere":1110,"bye":1111,"Ġbright":1112,"gan":1113,"Ġright":1114,"Ġdiffere":1115,"Ġstrong":1116,"Anna":1117,"Ġeveryone":1118,"Ġfollow":1119,"day":1120,"Ġour":1121,"Ġtra":1122,"Ġwatched":1123,"Ġsqu":1124,"ĠSpot":1125,"Ġuse":1126,"Ġwhere":1127,"Ġquickly":1128,"ered":1129,"ath":1130,"Ġdoes":1131,"Ġmor":1132,"Ġyell":1133,"Ġye":1134,"Ġface":1135,"Ġbeen":1136,"Ġvoice":1137,"Look":1138,"Ġhop":1139,"So":1140,"ĠMommy":1141,"Ġdress":1142,"ĠSue":1143,"Ġcr":1144,"ng":1145,"Ġdifferent":1146,"ange":1147,"Ġam":1148,"ĠBob":1149,"Sara":1150,"Ġchild":1151,"ĠN":1152,"Ġcuri":1153,"aught":1154,"Ġbecame":1155,"Ġsure":1156,"Ġhigh":1157,"ila":1158,"Ġmag":1159,"Ġplace":1160,"Ġgoodbye":1161,"Ġstore":1162,"Ġwarm":1163,"ĠR":1164,"Ġcloser":1165,"Ġforg":1166,"Ġtell":1167,"Ġcook":1168,"leep":1169,"Ġcurious":1170,"ndma":1171,"Ġcake":1172,"Ġblock":1173,"more":1174,"Ġanymore":1175,"unny":1176,"ass":1177,"Ġfav":1178,"ount":1179,"co":1180,"Ġbel":1181,"Ġnight":1182,"Ġopen":1183,"Jo":1184,"Ġpull":1185,"itc":1186,"Ġfirst":1187,"Ġz":1188,"ired":1189,"ĠTh":1190,"Ġhere":1191,"ached":1192,"Ġbus":1193,"imes":1194,"Ġpu":1195,"Her":1196,"Ġfell":1197,"iss":1198,"Ġthree":1199,"Ġpain":1200,"Ġru":1201,"Can":1202,"Ġlea":1203,"orn":1204,"Ġgrabbed":1205,"Ġbutter":1206,"Ġkid":1207,"Ġsweet":1208,"Ġonly":1209,"Ġmon":1210,"Ġsees":1211,"Ġbirds":1212,"Ġjumped":1213,"itchen":1214,"Ġkitchen":1215,"Ġflo":1216,"Ġhelped":1217,"Ġstop":1218,"Ġsand":1219,"Ġcont":1220,"Ġfire":1221,"Ġbit":1222,"Ġba":1223,"isy":1224,"Ġglad":1225,"Ġhappened":1226,"Ġtri":1227,"Ġsing":1228,"Ġgrass":1229,"Ġdr":1230,"ĠDo":1231,"Ġper":1232,"Ġshouted":1233,"Ġbrother":1234,"ĠLet":1235,"After":1236,"Ġbeh":1237,"nts":1238,"Ġstory":1239,"Ġreached":1240,"air":1241,"ĠSarah":1242,"Ġrealized":1243,"ppy":1244,"Ġlady":1245,"ins":1246,"Ġyummy":1247,"akes":1248,"Ġhat":1249,"Ġmess":1250,"Ġsoft":1251,"Ġbunny":1252,"Ġhaving":1253,"Ġate":1254,"'re":1255,"Ġpretend":1256,"Ġfavor":1257,"Ġunderst":1258,"Ġless":1259,"ĠJane":1260,"Ġgame":1261,"ĠAs":1262,"Ġcre":1263,"Ġfavorite":1264,"Ġdraw":1265,"Ġrest":1266,"Ġprin":1267,"ĠEveryone":1268,"Ġready":1269,"zy":1270,"Ġthrough":1271,"Ġpap":1272,"Ġpare":1273,"where":1274,"Ġthing":1275,"ĠCan":1276,"Ġmum":1277,"Ġduck":1278,"ĠThat":1279,"Ġmagic":1280,"ken":1281,"Ġlooks":1282,"Ġreally":1283,"ater":1284,"Ġmaking":1285,"ather":1286,"Ġhimself":1287,"Ġworld":1288,"Ġcut":1289,"Ġbegan":1290,"Ġdone":1291,"Ġcoming":1292,"Ġkids":1293,"Mommy":1294,"Ġtired":1295,"Ġcars":1296,"ĠJoe":1297,"fully":1298,"Ġprom":1299,"Ġpond":1300,"Ġbutterf":1301,"Ġwaved":1302,"Ġwhy":1303,"Ġtouch":1304,"Wow":1305,"Ġfix":1306,"bo":1307,"Ġworry":1308,"Ġcatch":1309,"Ġste":1310,"ster":1311,"Ġfunny":1312,"Ġfro":1313,"Ġname":1314,"Ġflower":1315,"Ġcried":1316,"Ġpart":1317,"Ġfill":1318,"uff":1319,"Ġpus":1320,"Ġhold":1321,"sh":1322,"Ġblocks":1323,"Ġanother":1324,"Ġhair":1325,"Ġused":1326,"rel":1327,"Ġseen":1328,"Ġmouse":1329,"oney":1330,"eddy":1331,"ign":1332,"ient":1333,"Ġtop":1334,"Ġgreen":1335,"Ġdelic":1336,"Ġtast":1337,"Ġcool":1338,"Ġparents":1339,"iver":1340,"olly":1341,"Ġlight":1342,"Ġhopped":1343,"Ġthank":1344,"aisy":1345,"Ġlesson":1346,"mer":1347,"Ġdoing":1348,"Ġsurprise":1349,"Ġlikes":1350,"hy":1351,"Ġgi":1352,"Ġfloor":1353,"ation":1354,"ards":1355,"Ġdri":1356,"Ġswim":1357,"Ġwished":1358,"ĠJohn":1359,"As":1360,"Ġpaper":1361,"Don":1362,"\".":1363,"Ġwindow":1364,"Ġsmell":1365,"Ġbehind":1366,"Timmy":1367,"Ġbag":1368,"Sam":1369,"Ġdro":1370,"Ġrunning":1371,"ike":1372,"Ġcra":1373,"Ġfull":1374,"Ġdark":1375,"Ġbow":1376,"Ġread":1377,"Ġworked":1378,"Ġdin":1379,"Ġsho":1380,"Ġwood":1381,"Ġtrees":1382,"Ġsleep":1383,"Ġyellow":1384,"ul":1385,"Ġspot":1386,"andy":1387,"Ġhole":1388,"ren":1389,"ued":1390,"Ġsat":1391,"Ġ-":1392,"Ġswing":1393,"Ġlaugh":1394,"Ġyears":1395,"aring":1396,"Ġhappily":1397,"ely":1398,"rew":1399,"Ġslow":1400,"Ġset":1401,"Ġcold":1402,"Ġbutterfly":1403,"Ġsurprised":1404,"ĠIn":1405,"Ġice":1406,"Ġremembered":1407,"Ġfrog":1408,"John":1409,"Ġlost":1410,"Ġheld":1411,"Hell":1412,"Hello":1413,"Ġcarefully":1414,"Ġbuy":1415,"Ġneeded":1416,"ons":1417,"uit":1418,"Ġmove":1419,"Ġanything":1420,"Ġhear":1421,"Ġleft":1422,"Ġwrong":1423,"Ġdream":1424,"Ġfollowed":1425,"Ġtall":1426,"Ġfair":1427,"Ġenjoyed":1428,"Ġtable":1429,"Ġperf":1430,"reed":1431,"Ġhun":1432,"ens":1433,"Ġel":1434,"Ġdir":1435,"Ġsnow":1436,"Ġair":1437,"Ġarri":1438,"Ġhill":1439,"cess":1440,"Ġchildren":1441,"inally":1442,"Ġhot":1443,"Ġbooks":1444,"Ġfinished":1445,"Ġfriendly":1446,"Ġherself":1447,"Ġunderstand":1448,"ross":1449,"Ġplease":1450,"Ġclose":1451,"ds":1452,"Ġbug":1453,"Ġhid":1454,"Ġcontin":1455,"ined":1456,"Ġdelicious":1457,"ĠAfter":1458,"Ġmight":1459,"Ġarm":1460,"sp":1461,"Ġcast":1462,"Ġelse":1463,"Ġforgot":1464,"lf":1465,"Ġcolors":1466,"ĠLila":1467,"Ġrel":1468,"Ġbroken":1469,"Ġgent":1470,"ield":1471,"Ġarrived":1472,"Ġbuild":1473,"Ġbaby":1474,"Ġsong":1475,"Ġtight":1476,"Ġgone":1477,"atter":1478,"Ġwonderful":1479,"ĠBenny":1480,"Ġable":1481,"Ġsquir":1482,"av":1483,"Ġwants":1484,"ĠNow":1485,"asure":1486,"OK":1487,"Then":1488,"ner":1489,"ĠSally":1490,"ĠDaisy":1491,"Ġwall":1492,"Ġfilled":1493,"room":1494,"Ġcreat":1495,"Ġsomeone":1496,"Ġleaves":1497,"Ġagreed":1498,"ask":1499,"Ġyes":1500,"ich":1501,"Ġsquirrel":1502,"Ġcount":1503,"Ġpink":1504,"Ġcontinued":1505,"ĠThere":1506,"ey":1507,"'ll":1508,"Jack":1509,"ee":1510,"Ġbreak":1511,"ĠEm":1512,"Ġvis":1513,"Ġlion":1514,"ama":1515,"From":1516,"Ġenough":1517,"Ġpoin":1518,"ĠTommy":1519,"Ġcookies":1520,"ĠMaybe":1521,"Ġfall":1522,"Ġmoment":1523,"Ġgetting":1524,"Ġmorning":1525,"Ġstayed":1526,"ash":1527,"Ġfinally":1528,"ries":1529,"Ġscary":1530,"app":1531,"Ġju":1532,"Ġhungry":1533,"Ġgrandma":1534,"Ġfight":1535,"row":1536,"ance":1537,"Ġsometimes":1538,"Ġturned":1539,"Ġwet":1540,"Ġmakes":1541,"icy":1542,"gon":1543,"Ġpi":1544,"Ġsmiles":1545,"Ġbeach":1546,"ĠThis":1547,"Ġtrying":1548,"Ġothers":1549,"oom":1550,"Ġcream":1551,"Ġclimbed":1552,"Ġfew":1553,"Ġdinner":1554,"Ġcastle":1555,"Ġamazing":1556,"ĠWhat":1557,"Ġcomp":1558,"Ġlistened":1559,"apped":1560,"ced":1561,"ĠK":1562,"Ġpictures":1563,"This":1564,"Ġtalk":1565,"Ġmet":1566,"rot":1567,"red":1568,"key":1569,"Ġmother":1570,"At":1571,"Ġfur":1572,"Ġclot":1573,"Ġtail":1574,"oup":1575,"lc":1576,"Ġclothes":1577,"Ġmus":1578,"Ġperfect":1579,"oring":1580,"Ġwhite":1581,"Ġmar":1582,"His":1583,"man":1584,"Ġpuppy":1585,"Ġdaddy":1586,"Ġballoon":1587,"Ġsail":1588,"Ġasks":1589,"ctor":1590,"ĠGra":1591,"ence":1592,"Ġalone":1593,"Ġpet":1594,"Ġpol":1595,"amp":1596,"Oh":1597,"uffy":1598,"ister":1599,"ĠBilly":1600,"Ġspl":1601,"Ġsit":1602,"Ġbrought":1603,"Ġwasn":1604,"Ġjoy":1605,"Ġpulled":1606,"der":1607,"ated":1608,"ucky":1609,"Ġspark":1610,"Ġstrange":1611,"Ġeverything":1612,"Ġwoods":1613,"Ġsear":1614,"ĠTo":1615,"Ġgrow":1616,"Ġdanger":1617,"Ġdeep":1618,"wl":1619,"Ġwaited":1620,"ĠJen":1621,"Ġride":1622,"ott":1623,"Ġpie":1624,"Ġplan":1625,"Ġvisit":1626,"Ġwon":1627,"Ġroll":1628,"eter":1629,"Ġhide":1630,"Ġpat":1631,"ower":1632,"Ġfox":1633,"Ġleave":1634,"me":1635,"Ġamazed":1636,"ang":1637,"Ġtreat":1638,"Ġruns":1639,"ever":1640,"os":1641,"Ġteddy":1642,"med":1643,"Ġsilly":1644,"Ġmusic":1645,"zz":1646,"Ġcloud":1647,"Ġtowards":1648,"Maybe":1649,"ĠAmy":1650,"Ġthinks":1651,"Ġliving":1652,"Ġflying":1653,"Ġpen":1654,"Ġshap":1655,"Max":1656,"Ġland":1657,"Ġshared":1658,"Ġpre":1659,"Okay":1660,"gs":1661,"Ġpromised":1662,"Ġowner":1663,"ames":1664,"ises":1665,"ope":1666,"ugg":1667,"ained":1668,"Ġgu":1669,"thy":1670,"Ġfield":1671,"Ġrace":1672,"Ġpa":1673,"igg":1674,"Ġqui":1675,"Ġjob":1676,"cket":1677,"Ġside":1678,"Ġmoney":1679,"Ġpaint":1680,"Ġmoral":1681,"Ġlake":1682,"Ġbelie":1683,"Ġsister":1684,"Ġfaster":1685,"Ġwear":1686,"avy":1687,"ol":1688,"up":1689,"cle":1690,"Ġparty":1691,"Ġquiet":1692,"Ġbran":1693,"orm":1694,"Ġsec":1695,"ually":1696,"unch":1697,"eces":1698,"ĠJim":1699,"Ġcolorful":1700,"Ġbroke":1701,"Ġmust":1702,"Ġpieces":1703,"Ġworried":1704,"ix":1705,"Ġgrate":1706,"Ġslowly":1707,"Ġgif":1708,"Ġdance":1709,"Ġtrain":1710,"sw":1711,"Ġbott":1712,"Ġwelc":1713,"Ġcandy":1714,"Ġcup":1715,"ased":1716,"Ġbike":1717,"Ġansw":1718,"Ġreach":1719,"ling":1720,"Ġgrateful":1721,"Ġblank":1722,"Ġbigger":1723,"ze":1724,"Ġele":1725,"Ġcho":1726,"Ġsuch":1727,"ph":1728,"Ġpro":1729,"fort":1730,"Ġtreasure":1731,"Ġscream":1732,"Ġblanket":1733,"ĠAll":1734,"less":1735,"Ġplant":1736,"ire":1737,"Ġsmart":1738,"Ġmonster":1739,"Ġblack":1740,"Ġdangerous":1741,"Ġsnack":1742,"Ġnap":1743,"outh":1744,"Ġbar":1745,"Ġwin":1746,"Ġve":1747,"Ġriver":1748,"Ġpot":1749,"Ġmagical":1750,"Sure":1751,"Ġtower":1752,"Ġdolls":1753,"Ġmouth":1754,"Ġeverywhere":1755,"Ġem":1756,"Ġhelping":1757,"Ġprincess":1758,"Ġjoin":1759,"Ġdragon":1760,"Ġje":1761,"ipped":1762,"Ġmost":1763,"Ġdirty":1764,"Ġmonkey":1765,"Ġdoctor":1766,"Ġthrew":1767,"Ġacross":1768,"Ġsign":1769,"de":1770,"ear":1771,"Ġbee":1772,"Ġtwins":1773,"ming":1774,"set":1775,"Ġdisapp":1776,"Ġfarmer":1777,"Ġbowl":1778,"Ġcrying":1779,"Ġheavy":1780,"Ġcarrot":1781,"Ġfruit":1782,"Ġwords":1783,"Hi":1784,"ored":1785,"Why":1786,"Ġsame":1787,"Ġbite":1788,"Ġheal":1789,"ĠFl":1790,"Ġhoped":1791,"Ġstepped":1792,"bble":1793,"ere":1794,"eared":1795,"ĠDaddy":1796,"Ġhig":1797,"Ġclosed":1798,"Ġspr":1799,"Mia":1800,"Ġpass":1801,"Ġstuck":1802,"ident":1803,"cked":1804,"Ġstre":1805,"Ġwouldn":1806,"Ġacc":1807,"Ġbath":1808,"Ġheart":1809,"Ġteac":1810,"asket":1811,"Ġtown":1812,"Ġbasket":1813,"Ġfeels":1814,"Ġbuck":1815,"Ġbutt":1816,"ĠMr":1817,"Ġbelieve":1818,"chool":1819,"Ġatt":1820,"Ġcoll":1821,"ĠJill":1822,"Ġcour":1823,"ĠMolly":1824,"Ġcray":1825,"Ġmix":1826,"Ġbrown":1827,"ord":1828,"Ġchair":1829,"Ġschool":1830,"iting":1831,"Ġeating":1832,"Ġpushed":1833,"Ġpack":1834,"Ġfairy":1835,"Ġcourse":1836,"Ġneigh":1837,"Ġsuddenly":1838,"Ġclapped":1839,"Ġpers":1840,"Ġgentle":1841,"Ġmin":1842,"pping":1843,"Ġhit":1844,"Ġhigher":1845,"Ġwithout":1846,"Ġwelcome":1847,"issed":1848,"Ġneighb":1849,"Ġyard":1850,"orrow":1851,"ts":1852,"Ġstand":1853,"Ġteacher":1854,"ventually":1855,"Ġsmo":1856,"Ġdrove":1857,"Ġpocket":1858,"Ġtoday":1859,"Ġswings":1860,"ier":1861,"Ġnoises":1862,"Ġben":1863,"ourn":1864,"br":1865,"umb":1866,"Ġwings":1867,"Ġforget":1868,"ors":1869,"Ġjourn":1870,"Ġcheered":1871,"Ġneck":1872,"Ġgames":1873,"Ġfree":1874,"Ġturns":1875,"ho":1876,"Lila":1877,"Ġpiece":1878,"vel":1879,"ract":1880,"Ġhugs":1881,"Ġdry":1882,"Ġlonger":1883,"Ġthrow":1884,"Ġaccident":1885,"Ġsang":1886,"Finally":1887,"Ġhappen":1888,"ead":1889,"Ġexplained":1890,"Ġalong":1891,"ible":1892,"oun":1893,"Ġshoes":1894,"Ġinst":1895,"phant":1896,"Ġmat":1897,"itting":1898,"cy":1899,"Ġsea":1900,"Ġcorn":1901,"ches":1902,"Ġlate":1903,"Ġlon":1904,"Ġmiss":1905,"Ġwell":1906,"Ġfence":1907,"Ġwish":1908,"Ġtrou":1909,"Ġyoung":1910,"Ġshook":1911,"ment":1912,"Ġlonely":1913,"Ġstories":1914,"Ġlunch":1915,"Ġelephant":1916,"Ġwhe":1917,"Ġadventures":1918,"Ġpurp":1919,"Ġsinging":1920,"Ġsecret":1921,"Ġcaught":1922,"Ġmoved":1923,"Ġstar":1924,"Ġupset":1925,"ape":1926,"ĠMary":1927,"Ġmine":1928,"Ġdist":1929,"Ġrocks":1930,"Ġstars":1931,"aughty":1932,"Ġplac":1933,"Ġph":1934,"ek":1935,"bby":1936,"Ġnaughty":1937,"Ġtom":1938,"ountain":1939,"Ġbelong":1940,"Do":1941,"ĠGrandma":1942,"ces":1943,"Ġapple":1944,"ocked":1945,"Ġbring":1946,"Ġwise":1947,"Ġsoup":1948,"Ġdropped":1949,"Ġjar":1950,"fused":1951,"yard":1952,"Ġstreet":1953,"Ġorange":1954,"Ġnearby":1955,"Ġtaking":1956,"Ġbucket":1957,"Ġpurple":1958,"Ġkey":1959,"Ġshop":1960,"Ġowl":1961,"Ġbackyard":1962,"Ġswam":1963,"Ġpast":1964,"Ġdrink":1965,"Ġexploring":1966,"bow":1967,"Ġshapes":1968,"Ġexp":1969,"ail":1970,"llo":1971,"ub":1972,"Ġes":1973,"Ġresp":1974,"ĠEmma":1975,"ĠThank":1976,"ward":1977,"Ġseemed":1978,"Ġbench":1979,"Ġinv":1980,"Ġrelie":1981,"aughter":1982,"Ġfarm":1983,"Ġmail":1984,"Ġca":1985,"Ġyear":1986,"Ġbusy":1987,"Ġtakes":1988,"Ġsounds":1989,"ung":1990,"ese":1991,"Ġaf":1992,"Ġwoke":1993,"Ġjuice":1994,"ush":1995,"Ġnose":1996,"Ġmad":1997,"sy":1998,"Ġnothing":1999,"adow":2000,"Ġcou":2001,"Ġstu":2002,"Ġthough":2003,"Ġarms":2004,"ĠFluffy":2005,"Ġcomes":2006,"ions":2007,"And":2008,"cing":2009,"Ġtiny":2010,"Ġcow":2011,"Ġ3":2012,"col":2013,"ity":2014,"Ġholding":2015,"fish":2016,"Ġwondered":2017,"ĠO":2018,"Ġdes":2019,"Ġnest":2020,"weet":2021,"Ġsitting":2022,"Ġmark":2023,"Ġsick":2024,"Ġrainbow":2025,"Ġbranch":2026,"Ġfit":2027,"Ġdaughter":2028,"Ġboun":2029,"Ġpig":2030,"raid":2031,"thday":2032,"Ġdriver":2033,"Ġcir":2034,"Ġafraid":2035,"ose":2036,"ining":2037,"read":2038,"to":2039,"Ġcoat":2040,"Ġmil":2041,"Ġob":2042,"Ġround":2043,"pper":2044,"Ġlift":2045,"ĠInside":2046,"Ġgift":2047,"Ġpatient":2048,"Ġcarry":2049,"Ġforever":2050,"idge":2051,"ittens":2052,"Ġking":2053,"Ġhuge":2054,"Ġcute":2055,"Ġpeace":2056,"Ġbread":2057,"Ġletter":2058,"Ġtou":2059,"Ġtouched":2060,"Ġrelieved":2061,"Ġkite":2062,"Ġpromise":2063,"Ġspoon":2064,"ĠCome":2065,"vered":2066,"Of":2067,"Ġband":2068,"Ġcheese":2069,"ours":2070,"eth":2071,"Ġhello":2072,"sting":2073,"Ġpower":2074,"Ġfing":2075,"Ġwhist":2076,"Ġgrab":2077,"let":2078,"Ġbirthday":2079,"ĠFinally":2080,"og":2081,"board":2082,"Ġswimming":2083,"Ġintere":2084,"Ġshell":2085,"cer":2086,"Ġjourney":2087,"Hey":2088,"Ġonto":2089,"Ġexciting":2090,"Ġact":2091,"Ġgigg":2092,"Ġkick":2093,"ĠMama":2094,"unt":2095,"Ġwra":2096,"Ġdays":2097,"sc":2098,"shine":2099,"itch":2100,"Ġlife":2101,"gg":2102,"Ġmist":2103,"Ġsunny":2104,"Ġlaughing":2105,"Ġputs":2106,"gged":2107,"Ġmilk":2108,"Ġret":2109,"Ġhope":2110,"Ġgives":2111,"Ġbush":2112,"Ġcreature":2113,"Ġcomfort":2114,"Ġbottle":2115,"arp":2116,"Ġcozy":2117,"Ġwom":2118,"Ġlucky":2119,"Ġwoman":2120,"Ġdisco":2121,"alm":2122,"Ġinstead":2123,"ped":2124,"ĠSammy":2125,"Ġear":2126,"Ġducks":2127,"Ġspin":2128,"Ġpointed":2129,"Ġcollect":2130,"Ġsunshine":2131,"Ġsharp":2132,"ness":2133,"Tommy":2134,"ten":2135,"Ġreturn":2136,"Ġimag":2137,"Ġaccidentally":2138,"Ġpudd":2139,"Ġroad":2140,"ĠSoon":2141,"els":2142,"Ġeas":2143,"Ġwatching":2144,"Ġinc":2145,"Ġcave":2146,"Ġlater":2147,"Later":2148,"Ġfan":2149,"Ġhoney":2150,"Ġsmiling":2151,"ball":2152,"Ġanyone":2153,"Ġsuc":2154,"blem":2155,"Ġtalked":2156,"Ġproblem":2157,"Ġbought":2158,"Ġhor":2159,"Ġspo":2160,"Ġent":2161,"Ġgather":2162,"ize":2163,"Ġperson":2164,"Ġsearched":2165,"itten":2166,"pa":2167,"round":2168,"Ġsandw":2169,"Ġhealthy":2170,"Good":2171,"Ġapples":2172,"Ġbutton":2173,"cks":2174,"Bob":2175,"Ġce":2176,"Ġpop":2177,"irt":2178,"ĠTweet":2179,"Ġrope":2180,"Ġmach":2181,"Ġloves":2182,"Ġtrouble":2183,"Ġcrayons":2184,"Ġmeet":2185,"Ġtasty":2186,"Ġinteresting":2187,"Ġclouds":2188,"Ġkiss":2189,"Ġsu":2190,"Ġsmelled":2191,"Ġclever":2192,"ont":2193,"Ġzoom":2194,"ove":2195,"eb":2196,"amed":2197,"Ġplane":2198,"Ġstorm":2199,"Ġpile":2200,"Ġpar":2201,"Ġmatter":2202,"Ġspid":2203,"Ġwide":2204,"Ġadm":2205,"Ġshining":2206,"owed":2207,"Ġfront":2208,"Ġvill":2209,"Ġfeather":2210,"Ġpath":2211,"aur":2212,"Ġorgan":2213,"Ġrespect":2214,"ĠWith":2215,"Ġpres":2216,"Ġprot":2217,"Ġscreamed":2218,"Lucy":2219,"Ġmud":2220,"ĠEll":2221,"Ġeag":2222,"ÅĵI":2223,"Ġasleep":2224,"Ġpract":2225,"epend":2226,"Ġprotect":2227,"Ġsnowman":2228,"ale":2229,"ndpa":2230,"erly":2231,"Ġspotted":2232,"ĠJimmy":2233,"Ġzoo":2234,"oose":2235,"Ġbark":2236,"Ġsnake":2237,"Ġneighbor":2238,"Come":2239,"een":2240,"Ġap":2241,"ex":2242,"ĠSomet":2243,"Ġsur":2244,"Ġcard":2245,"Ġpuzz":2246,"Ġsaf":2247,"Ġval":2248,"Ġquest":2249,"Ġwild":2250,"Ġlovely":2251,"Ġteach":2252,"Ġseat":2253,"Ġgoes":2254,"Ġhon":2255,"Ġdanced":2256,"Ġanswer":2257,"Ġwhich":2258,"ert":2259,"Ġappeared":2260,"isa":2261,"Ġpill":2262,"Ġpresent":2263,"ond":2264,"Ġminut":2265,"Ġcheer":2266,"Ġtries":2267,"St":2268,"Ġmyster":2269,"Ġgently":2270,"Just":2271,"Ġhorse":2272,"Ġmed":2273,"Ġwhole":2274,"ching":2275,"Ġwearing":2276,"Ġtrip":2277,"Jim":2278,"Ġplaces":2279,"Ġforgive":2280,"Ġgiant":2281,"Ġthin":2282,"Ġshr":2283,"Ġmind":2284,"ular":2285,"Ġdirt":2286,"Ġslid":2287,"Ġphone":2288,"Ġconfused":2289,"Ġteeth":2290,"Ġdi":2291,"Ġrude":2292,"Ġimpress":2293,"ĠMittens":2294,"Molly":2295,"Ġrolled":2296,"Ġfaces":2297,"Every":2298,"Ġdrive":2299,"Ġworm":2300,"Ġcorner":2301,"ĠGo":2302,"Ġrec":2303,"Ġlive":2304,"itty":2305,"Ġtasted":2306,"ssed":2307,"cean":2308,"Ġash":2309,"ĠHow":2310,"Ġocean":2311,"Ġchick":2312,"In":2313,"Ġspent":2314,"izz":2315,"Ġpretended":2316,"Ġser":2317,"Ġsplas":2318,"Ġcalm":2319,"Ġmachine":2320,"Ġpour":2321,"Ġlad":2322,"Mum":2323,"Ġsupp":2324,"ĠEmily":2325,"nic":2326,"ones":2327,"Ġwave":2328,"Ġring":2329,"Ġfeet":2330,"Ġlay":2331,"Ġfurry":2332,"Ġoven":2333,"la":2334,"Ġpicnic":2335,"Ġsack":2336,"Ġpan":2337,"Ġspider":2338,"Ġlast":2339,"Ġcookie":2340,"Ġdelight":2341,"Ġcouch":2342,"Ġtomorrow":2343,"Ġpush":2344,"Ġwip":2345,"Ġemb":2346,"Ġhelpful":2347,"ato":2348,"Ġremind":2349,"umber":2350,"Ġbubble":2351,"unk":2352,"Ġladder":2353,"Ġtun":2354,"Ġban":2355,"Ġrob":2356,"Ġbuilding":2357,"Ġcoin":2358,"Ġchocol":2359,"Ġneckl":2360,"ator":2361,"Ġbugs":2362,"Ġbell":2363,"Ġstret":2364,"Ġign":2365,"Ġknee":2366,"Ġsal":2367,"hile":2368,"Ġsmooth":2369,"Ġblew":2370,"Ġcart":2371,"Ġtid":2372,"Ġspread":2373,"Ġeventually":2374,"ĠCh":2375,"arge":2376,"Ġmountain":2377,"Ġsel":2378,"als":2379,"Ġtalking":2380,"Ġhiding":2381,"Ġchased":2382,"Ġshy":2383,"arra":2384,"not":2385,"Ġtool":2386,"Ġfighting":2387,"Ġfoot":2388,"Ġembarra":2389,"Ġwrite":2390,"Ġfinish":2391,"Ġpuddle":2392,"mo":2393,"ife":2394,"Soon":2395,"ighed":2396,"Ġcannot":2397,"Ġwaiting":2398,"Ġsongs":2399,"Ġvillage":2400,"Ġleaf":2401,"Ġpool":2402,"Ġwore":2403,"ĠJenny":2404,"Ġwhenever":2405,"Ġrobot":2406,"Ġfold":2407,"Ġchocolate":2408,"Ġpaw":2409,"ĠSometimes":2410,"Ġnet":2411,"Ġhum":2412,"Ġstep":2413,"Ġtreats":2414,"Ġcloth":2415,"Ġant":2416,"Ġselfish":2417,"My":2418,"Ġcoo":2419,"lex":2420,"Ġbanan":2421,"Ġcross":2422,"Ġmaybe":2423,"Ġtaste":2424,"ĠJust":2425,"Ġbarked":2426,"Ġnecklace":2427,"oph":2428,"ult":2429,"Ġshelf":2430,"Ġstra":2431,"Ġstring":2432,"ĠLe":2433,"Ġwash":2434,"Ġfixed":2435,"box":2436,"umpy":2437,"Ġpeaceful":2438,"Ġlarge":2439,"Please":2440,"Ġtidy":2441,"ĠEverywhere":2442,"ĠSt":2443,"ĠPlease":2444,"Ġstir":2445,"elly":2446,"Ġgen":2447,"Ġrep":2448,"Ġsol":2449,"Ġspray":2450,"lice":2451,"Ġspe":2452,"Mama":2453,"lebr":2454,"hnn":2455,"old":2456,"Ġple":2457,"ird":2458,"Ġcolour":2459,"Ġcarrots":2460,"Ġcelebr":2461,"Ġcreative":2462,"Dad":2463,"Ġbat":2464,"airs":2465,"ungle":2466,"Ġ'":2467,"Ġplate":2468,"Ġembarrassed":2469,"orry":2470,"Ġjumping":2471,"Ġstone":2472,"Ġwhis":2473,"Now":2474,"urse":2475,"arm":2476,"Ġjungle":2477,"Ġwhistle":2478,"Ġsticks":2479,"oin":2480,"iger":2481,"Ġtrust":2482,"Ġmissed":2483,"ĠTheir":2484,"Ġcrab":2485,"ĠJake":2486,"Ġscar":2487,"Ġhears":2488,"Ġknocked":2489,"ĠTV":2490,"Ġdeter":2491,"Ġhel":2492,"Ġdecor":2493,"Ġlanded":2494,"Ġforward":2495,"Ġsharing":2496,"hnny":2497,"ĠSome":2498,"Ġtea":2499,"Ġlegs":2500,"Ġdeterm":2501,"Ġtells":2502,"most":2503,"Ġmoon":2504,"Ġshirt":2505,"Ġemp":2506,"Ġempty":2507,"Ġdisappoin":2508,"getable":2509,"Ġalmost":2510,"Ġvegetable":2511,"ets":2512,"ĠDon":2513,"ned":2514,"Ġsplash":2515,"Ġashamed":2516,"Ġsour":2517,"ground":2518,"Ġgener":2519,"ying":2520,"Ġgrew":2521,"Ġmeant":2522,"ian":2523,"Ġgray":2524,"Ġtightly":2525,"Ġnods":2526,"dge":2527,"Ġmeadow":2528,"aking":2529,"Ġwhisp":2530,"Be":2531,"Ġpolice":2532,"Ġjew":2533,"ĠAnn":2534,"Ġsave":2535,"Ġbreath":2536,"Ġunderstood":2537,"Sarah":2538,"erry":2539,"ĠLisa":2540,"Ġgas":2541,"Ġbal":2542,"Ġthese":2543,"dle":2544,"ĠWhy":2545,"To":2546,"ĠOn":2547,"erp":2548,"Ġstood":2549,"ital":2550,"Ġyelled":2551,"Ġcarried":2552,"Ġgun":2553,"Ġhonest":2554,"Ġspicy":2555,"Ġdisappointed":2556,"den":2557,"Ġsnacks":2558,"Ġnut":2559,"Ġsheep":2560,"Ġhosp":2561,"Ġpillow":2562,"Ġpay":2563,"ano":2564,"Ġhospital":2565,"vous":2566,"ĠTeddy":2567,"Ġsuccess":2568,"Ġseek":2569,"Stop":2570,"Ġbored":2571,"Ġhours":2572,"Ġkitten":2573,"Ġline":2574,"Ġpizz":2575,"Ġgold":2576,"Ġlem":2577,"ustr":2578,"Ġtest":2579,"obby":2580,"Ġsparkly":2581,"Ġpowerful":2582,"Ġdrew":2583,"arl":2584,"Ġship":2585,"ork":2586,"Ġjelly":2587,"Ġglass":2588,"kin":2589,"Ġshore":2590,"Ġhidden":2591,"Ġgenerous":2592,"Where":2593,"Ġwaves":2594,"Ġfear":2595,"ĠRex":2596,"Ġmot":2597,"Ġclass":2598,"ĠZ":2599,"ĠBe":2600,"body":2601,"Ġfeed":2602,"Ġreturned":2603,"Ġeasy":2604,"ĠEven":2605,"ĠTogether":2606,"Ġpuzzle":2607,"Ġstanding":2608,"Ġvan":2609,"Ġseed":2610,"Ġsighed":2611,"Ġfrustr":2612,"Ġbedroom":2613,"Ġcloset":2614,"Ġtaught":2615,"ony":2616,"Ġrad":2617,"Ġgroup":2618,"Ġknowing":2619,"iff":2620,"ina":2621,"Ġplants":2622,"hin":2623,"Ġkissed":2624,"Ġpin":2625,"Ġsleepy":2626,"Ġner":2627,"Ġblow":2628,"Ġchew":2629,"Ġsold":2630,"Ġpizza":2631,"itter":2632,"Ġmessy":2633,"Ġcries":2634,"Ġcrown":2635,"ĠMum":2636,"cles":2637,"aul":2638,"'d":2639,"Ġpoor":2640,"Ġnervous":2641,"Ġpri":2642,"There":2643,"gly":2644,"Ġav":2645,"Ġdetermined":2646,"Ġhur":2647,"Ġthankful":2648,"Ġburn":2649,"era":2650,"Ġtears":2651,"Ġgate":2652,"Ġfancy":2653,"Ġfig":2654,"Ġyourself":2655,"Ġmysterious":2656,"Jane":2657,"Ġpolite":2658,"Ġugly":2659,"Ġwis":2660,"Sorry":2661,"Ġminutes":2662,"Ġtick":2663,"Ġsandwich":2664,"Ġscarf":2665,"ote":2666,"oop":2667,"Ġfinger":2668,"Ġhang":2669,"Ġcaterp":2670,"Ġcaterpill":2671,"Are":2672,"ĠPeter":2673,"Ġbridge":2674,"Ġprince":2675,"Ġfrustrated":2676,"pack":2677,"Ġpir":2678,"work":2679,"Ġgrumpy":2680,"Ġtwirl":2681,"Ġesc":2682,"Ġwolf":2683,"Ġleg":2684,"fl":2685,"Ġgathered":2686,"af":2687,"Ġspoil":2688,"Ġvase":2689,"Ġdrop":2690,"usie":2691,"Ġpassed":2692,"Ġboring":2693,"mb":2694,"Ġreg":2695,"Ġexcite":2696,"Ġscr":2697,"Ġflag":2698,"oof":2699,"osaur":2700,"Ġoften":2701,"Ġhopping":2702,"iddle":2703,"Ġlock":2704,"Their":2705,"ensive":2706,"Ġrocket":2707,"Ġtent":2708,"illed":2709,"selves":2710,"Ġexpensive":2711,"Ġfil":2712,"Ġchest":2713,"Ġclown":2714,"Ġcaterpillar":2715,"Ġlit":2716,"Ġdancing":2717,"Ġwagged":2718,"Ġgets":2719,"Ġboss":2720,"Ġtrue":2721,"Ġmummy":2722,"Ġdinosaur":2723,"Ġcand":2724,"Ġdeer":2725,"Ġtaken":2726,"Ġpicks":2727,"ĠLeo":2728,"Ġmir":2729,"izzy":2730,"issors":2731,"Ġworking":2732,"Ġpress":2733,"ual":2734,"Ġanswered":2735,"sist":2736,"Ġspend":2737,"Ġsaved":2738,"Ġexcitement":2739,"Ġmistake":2740,"ella":2741,"uce":2742,"Ġones":2743,"Ġscissors":2744,"Ġwander":2745,"Ġtie":2746,"Ġbone":2747,"Ġcomfortable":2748,"Who":2749,"Ġfruits":2750,"light":2751,"ĠOK":2752,"Ġmiddle":2753,"ĠBr":2754,"ser":2755,"ates":2756,"Ġpacked":2757,"Ġgiggled":2758,"Ġknight":2759,"ror":2760,"Ġdest":2761,"que":2762,"ecially":2763,"Ġmedic":2764,"Ġasking":2765,"Ġmov":2766,"Ġdogs":2767,"Ġstuff":2768,"Ġbrush":2769,"Ġcap":2770,"Ġvegetables":2771,"Ġnumber":2772,"Sp":2773,"Ġsight":2774,"Ġpleased":2775,"pecially":2776,"Ġwheel":2777,"Ġespecially":2778,"Ġmedicine":2779,"Ġwalks":2780,"ushed":2781,"Ġadd":2782,"iness":2783,"ots":2784,"Ġchange":2785,"Ġweak":2786,"Ġlose":2787,"ĠBl":2788,"ugar":2789,"ggs":2790,"Ġmoving":2791,"Ġlazy":2792,"ha":2793,"Ġlicked":2794,"Ġeggs":2795,"Ġclap":2796,"Ġglue":2797,"Ġgar":2798,"Ġfake":2799,"Ġsweetie":2800,"Ġfeathers":2801,"Ġmatch":2802,"Ġsmelly":2803,"Ġok":2804,"Ġdrawing":2805,"Ġcalling":2806,"Ġhorn":2807,"Ġplayground":2808,"Ġdistance":2809,"aged":2810,"Ġsugar":2811,"Ġqueen":2812,"Ġlying":2813,"Ġcrawl":2814,"Ġbecome":2815,"Ġballs":2816,"Ġmirror":2817,"ĠJohnny":2818,"Ġdisappeared":2819,"elp":2820,"Ġexam":2821,"Ġyours":2822,"ĠIf":2823,"ĠNo":2824,"Ġflut":2825,"Ġruined":2826,"Ġnod":2827,"Ġeld":2828,"Ġbake":2829,"Ġfluffy":2830,"Ġtwist":2831,"Ġbathroom":2832,"Ġdrum":2833,"Me":2834,"Jimmy":2835,"Ġbody":2836,"Ġdrank":2837,"ete":2838,"Ġcrack":2839,"Ġweek":2840,"Ġsplashed":2841,"Ġrelax":2842,"Ġtape":2843,"ating":2844,"ory":2845,"Ġstones":2846,"Ġlead":2847,"Ġnoisy":2848,"Ġrid":2849,"Ġlemon":2850,"Ġsell":2851,"Ġcage":2852,"Ġmeasure":2853,"Ġfamous":2854,"Ġmic":2855,"ination":2856,"Ġed":2857,"Ġdish":2858,"Ġskipped":2859,"Ġcri":2860,"Ġjuicy":2861,"Ġincred":2862,"hip":2863,"Ġquestions":2864,"Ġwrote":2865,"Ġext":2866,"Sally":2867,"Ġdig":2868,"uggest":2869,"Ġsuggest":2870,"Ġroar":2871,"Help":2872,"yal":2873,"Ġdecide":2874,"Ġpray":2875,"enny":2876,"Ġcovered":2877,"Ġmoms":2878,"Ġind":2879,"Ġchicken":2880,"eez":2881,"ĠAt":2882,"Ġord":2883,"Ġcheck":2884,"Ġclear":2885,"Ġeager":2886,"illi":2887,"Ġcontent":2888,"Ġteam":2889,"Jill":2890,"Ġboys":2891,"Ġboard":2892,"Ġshows":2893,"Ġsailed":2894,"Ġmotor":2895,"Joe":2896,"Ġrare":2897,"Ġcleaned":2898,"Ġfigure":2899,"Ġtowel":2900,"Billy":2901,"umbled":2902,"alous":2903,"Ġhurts":2904,"Ġshoot":2905,"Ġneeds":2906,"Ġglow":2907,"Ġjealous":2908,"Ġfather":2909,"Ġsoap":2910,"imp":2911,"Ġelderly":2912,"Ġextra":2913,"Ġincredible":2914,"Ġloyal":2915,"Ġbranches":2916,"Ġorganized":2917,"Ġfine":2918,"Ġfis":2919,"Ġrich":2920,"Ġbubbles":2921,"Ġborrow":2922,"Ġjoke":2923,"Ġcoins":2924,"Ġaw":2925,"Ġgarage":2926,"?\".":2927,"Ġlamp":2928,"ĠEnd":2929,"Ġadventur":2930,"fic":2931,"Ġstraw":2932,"Ġfrown":2933,"Ġoffered":2934,"Ġhappening":2935,"Gra":2936,"Ġmod":2937,"ti":2938,"Ġham":2939,"Ġwhale":2940,"Ġonce":2941,"Ġrealised":2942,"Ġtiger":2943,"ately":2944,"Ġwand":2945,"land":2946,"Ġmap":2947,"Ġlifted":2948,"Ġadventurous":2949,"asing":2950,"ipper":2951,"Well":2952,"Ġdiscovered":2953,"keep":2954,"Ġchase":2955,"Ġrecord":2956,"ipp":2957,"Ġlouder":2958,"Ġdiffic":2959,"Ġguess":2960,"Ġsword":2961,"Ġtag":2962,"Ġswan":2963,"Ġcost":2964,"Ġmighty":2965,"Ġcover":2966,"Ġeye":2967,"ĠLittle":2968,"ique":2969,"Ġunus":2970,"wled":2971,"Ġweird":2972,"Ġcrawled":2973,"Ġarg":2974,"port":2975,"Ġjewel":2976,"Ġword":2977,"Ġtrucks":2978,"imed":2979,"Ġtrack":2980,"Ġcolourful":2981,"Ġdifficult":2982,"Ġang":2983,"Sue":2984,"Ġkindness":2985,"Ġbottom":2986,"Ġsil":2987,"Ġunique":2988,"Ġunusual":2989,"Ġknife":2990,"cept":2991,"Ġhose":2992,"Ġmanaged":2993,"ĠBlue":2994,"alk":2995,"Ġyog":2996,"Ġhunt":2997,"Ġgiving":2998,"Ġbalance":2999,"Amy":3000,"cil":3001,"Ġpump":3002,"Ġbanana":3003,"ĠKitty":3004,"Ġcircle":3005,"Ġthick":3006,"ured":3007,"ery":3008,"Ġfour":3009,"lla":3010,"Ġpencil":3011,"Ġlaughs":3012,"Here":3013,"Ġfright":3014,"Mummy":3015,"Ġshake":3016,"ages":3017,"Spot":3018,"How":3019,"Ġedge":3020,"Ġtoug":3021,"Ġharder":3022,"Ġadded":3023,"Ġcompet":3024,"Ġfool":3025,"Ġballoons":3026,"aw":3027,"olog":3028,"Ġgrown":3029,"Ġdepend":3030,"ĠSusie":3031,"Ġsmoke":3032,"head":3033,"Ġfalls":3034,"ĠMark":3035,"Ġchoose":3036,"ĠBrown":3037,"keeper":3038,"Ġturt":3039,"Ġwrapped":3040,"Ġbrothers":3041,"Ġbarn":3042,"Ġdizzy":3043,"erries":3044,"Ġmarket":3045,"ym":3046,"iv":3047,"Ġhats":3048,"Ġcab":3049,"Ġberries":3050,"Ġapolog":3051,"rag":3052,"uggled":3053,"Ġcher":3054,"ye":3055,"ĠBobby":3056,"Ġboxes":3057,"Ġskin":3058,"Ġdreamed":3059,"Ġhero":3060,"Ġshape":3061,"Ġbloom":3062,"Ġvalu":3063,"Ġbossy":3064,"Ġflash":3065,"Ġspun":3066,"Ġmeans":3067,"Ġpointing":3068,"Ġbrilli":3069,"Ġcircles":3070,"Ġsearch":3071,"Ġlog":3072,"Ġbelonged":3073,"Ġcabin":3074,"Ġdolp":3075,"Ġloudly":3076,"Ġimpressed":3077,"ready":3078,"Ġbuttons":3079,"Ġbald":3080,"Ġnorm":3081,"Ġears":3082,"Ġenjoying":3083,"und":3084,"ouses":3085,"Ġagainst":3086,"Ġfavour":3087,"Ġgoat":3088,"Ġstrawber":3089,"Ġhelps":3090,"Ġbrilliant":3091,"fast":3092,"Ġpee":3093,"Ġisland":3094,"Ġlearning":3095,"Ġref":3096,"Ġmovie":3097,"Ġbatter":3098,"Ġtough":3099,"lies":3100,"ject":3101,"Ġharm":3102,"Ġwrap":3103,"emo":3104,"Ġscare":3105,"Ġalready":3106,"Ġsaying":3107,"Ġbreakfast":3108,"rage":3109,"ature":3110,"Ġmelt":3111,"Ġfavourite":3112,"ĠMy":3113,"Ġrough":3114,"Ġnormal":3115,"Ġsafely":3116,"Ġcompetit":3117,"Ġfat":3118,"Ġgrace":3119,"anged":3120,"Ġjack":3121,"Ġhouses":3122,"Ġslipped":3123,"Ġcro":3124,"ilt":3125,"Ġwagon":3126,"Ġpainting":3127,"Ġlibr":3128,"Ġcrayon":3129,"Ġter":3130,"apping":3131,"Ġstubb":3132,"Ġtrunk":3133,"Ġknows":3134,"Ġcudd":3135,"Ġfoolish":3136,"Ġwake":3137,"Ġescape":3138,"Ġhappiness":3139,"Ġcheerful":3140,"Ġvaluable":3141,"pes":3142,"Ġshark":3143,"ola":3144,"Ġthu":3145,"Ġproudly":3146,"Ġsounded":3147,"Ġbirdie":3148,"Ġfridge":3149,"reen":3150,"Ġlaw":3151,"Ġfrightened":3152,"ĠToday":3153,"Ġstubborn":3154,"Ġgrand":3155,"Ġoffice":3156,"gy":3157,"Ġicy":3158,"Ġtoast":3159,"Ġspace":3160,"Ġstudy":3161,"Ġinvited":3162,"Ġdough":3163,"Ġclay":3164,"Ġnotice":3165,"Ġfier":3166,"cient":3167,"ĠDan":3168,"Ġdependable":3169,"arth":3170,"edient":3171,"Ġturtle":3172,"Ġwalls":3173,"Ġshells":3174,"Ġdreams":3175,"omed":3176,"Ġnosy":3177,"ipe":3178,"Ġguit":3179,"Ġlean":3180,"Ġstri":3181,"Ġwiped":3182,"Ġlights":3183,"Ġpoured":3184,"Ġancient":3185,"Ġfierce":3186,"Ġcity":3187,"Ġexcla":3188,"Ġtimes":3189,"Ġparrot":3190,"Ġrose":3191,"Ġpil":3192,"Ġaccept":3193,"wards":3194,"Ġdead":3195,"Ġuseful":3196,"ext":3197,"Ġexclaimed":3198,"Ġterri":3199,"Ġfountain":3200,"Ġdelicate":3201,"ĠEllie":3202,"Ġnicely":3203,"ĠRose":3204,"Ġegg":3205,"Ġsmaller":3206,"Ġmixed":3207,"eor":3208,"Ġzip":3209,"Ġrat":3210,"ĠFred":3211,"Ġweal":3212,"Ġbags":3213,"Ġtools":3214,"Ġcam":3215,"Ġfingers":3216,"Ġobedient":3217,"Ġbitter":3218,"Ġstumbled":3219,"Ġunl":3220,"Ġstream":3221,"ĠMrs":3222,"Ġrode":3223,"corn":3224,"az":3225,"Ġlow":3226,"ache":3227,"Ġwitch":3228,"Ġresc":3229,"Ġow":3230,"Ġmagn":3231,"kn":3232,"ado":3233,"Ġmem":3234,"Ġlab":3235,"Ġsuggested":3236,"ention":3237,"Ġindepend":3238,"Ġcounted":3239,"ĠElla":3240,"Ġkinds":3241,"Ġroof":3242,"ĠBobo":3243,"Ġbushes":3244,"Ġguitar":3245,"Ġexcitedly":3246,"Ġtwig":3247,"Ġdesign":3248,"Ġgrandpa":3249,"irp":3250,"Ġlocked":3251,"Ġstove":3252,"iable":3253,"Ġabove":3254,"Ġspinning":3255,"Ġgem":3256,"Ġbounce":3257,"Ġcop":3258,"Ġjog":3259,"ither":3260,"Ġshadow":3261,"Ġsuccessful":3262,"Ġbeak":3263,"ÅĵLet":3264,"Ġwhispered":3265,"Ġbrightly":3266,"Ġshowing":3267,"Ġstronger":3268,"Ġscrat":3269,"oot":3270,"Ġkicked":3271,"Ġusing":3272,"Ġcleaning":3273,"ĠYour":3274,"Ġreminded":3275,"Ġpopcorn":3276,"Ġexplored":3277,"inal":3278,"Ġthemselves":3279,"ĠPete":3280,"Ġorig":3281,"uth":3282,"Ġbump":3283,"Ġseem":3284,"Ġtele":3285,"Ġreliable":3286,"Ġpractice":3287,"Ġindependent":3288,"Ġfrag":3289,"Ġhoop":3290,"Ġswe":3291,"ĠDucky":3292,"eorge":3293,"Ġadmired":3294,"known":3295,"Em":3296,"Ġtunn":3297,"Ġthoughtful":3298,"Ġboats":3299,"Ġshone":3300,"Ġjam":3301,"Ġsteal":3302,"dom":3303,"vice":3304,"amond":3305,"Ġspoiled":3306,"Ġways":3307,"Ġpumpkin":3308,"Ġjolly":3309,"Ġsniff":3310,"na":3311,"Ġfre":3312,"Ġjoined":3313,"Ġyarn":3314,"upid":3315,"Ġtomato":3316,"Ġtummy":3317,"Ġbuilt":3318,"ĠNemo":3319,"Ġbees":3320,"Ġdiamond":3321,"Ġplayful":3322,"ormous":3323,"ĠTweety":3324,"cod":3325,"Ġoriginal":3326,"arry":3327,"Ġenormous":3328,"Ġunknown":3329,"oppy":3330,"Ġeng":3331,"ines":3332,"Ġdelighted":3333,"Ġdove":3334,"ray":3335,"Ġmarble":3336,"mbre":3337,"Ġaunt":3338,"Ġcone":3339,"Ġholds":3340,"Ġumbre":3341,"Ġchanged":3342,"Ġacorn":3343,"ĠU":3344,"Ġperform":3345,"Ġcostum":3346,"!\".":3347,"Ġmetal":3348,"Ġserious":3349,"Ġpost":3350,"eeze":3351,"anut":3352,"Ġraced":3353,"Ġfragile":3354,"Ġhelm":3355,"Ġrubb":3356,"Ġenc":3357,"See":3358,"Ġbean":3359,"ĠAlice":3360,"Ġson":3361,"Ġdust":3362,"Ġtank":3363,"Ġstupid":3364,"Ġprint":3365,"anger":3366,"Ġallowed":3367,"Ġclum":3368,"gu":3369,"Ġhalf":3370,"Ġhammer":3371,"Ġcrocod":3372,"Ġrub":3373,"Ġrug":3374,"Ġstat":3375,"Ġpainted":3376,"ĠBu":3377,"Ġfinding":3378,"Ġhanded":3379,"Ġstairs":3380,"Ġcamera":3381,"Ġbeet":3382,"Ġsleeping":3383,"Ġmis":3384,"Ġgoose":3385,"Ġthose":3386,"Ġleaving":3387,"inary":3388,"Ġdoesn":3389,"Ġchose":3390,"uring":3391,"Ġwealthy":3392,"Ġsolve":3393,"Ġyet":3394,"Ġbrace":3395,"Ġthirst":3396,"Ġhay":3397,"Ġthunder":3398,"Ġsunfl":3399,"Ġtor":3400,"Ġsink":3401,"Ġrushed":3402,"Ġmoder":3403,"ict":3404,"Ġtelling":3405,"Ġenvel":3406,"Ġpicking":3407,"Ġhairy":3408,"Ġangel":3409,"Ġguard":3410,"Ġforth":3411,"Ġcheap":3412,"Ġcompass":3413,"ĠMar":3414,"ĠWhenever":3415,"Ġclumsy":3416,"ĠBella":3417,"Ġwashed":3418,"ĠMike":3419,"Ġpebble":3420,"Ġsuit":3421,"Ġbull":3422,"ilty":3423,"ebra":3424,"ience":3425,"Ġopens":3426,"Ġguilty":3427,"Ġcarrying":3428,"Ġdeliver":3429,"ugged":3430,"illa":3431,"umbers":3432,"Ġpotato":3433,"Go":3434,"het":3435,"Ġthirsty":3436,"Ġmissing":3437,"Ġcareless":3438,"Ġterrible":3439,"Ġsalad":3440,"Ġdull":3441,"Ġarrow":3442,"Ġadvice":3443,"Ġsearching":3444,"Ġpeanut":3445,"iew":3446,"Ġbarber":3447,"Ġpopular":3448,"Ġloll":3449,"robe":3450,"Ġmarch":3451,"Ġing":3452,"ÅĵYes":3453,"Ġwheels":3454,"Ġgasped":3455,"Ġmodern":3456,"ations":3457,"Ġdestro":3458,"ipop":3459,"Ġstops":3460,"oomy":3461,"Ġprep":3462,"Ġknock":3463,"Ġflex":3464,"Ġcur":3465,"aghet":3466,"Ġzebra":3467,"aghetti":3468,"isk":3469,"Ġpatter":3470,"com":3471,"Ġview":3472,"Ġregular":3473,"Ġflashlight":3474,"Ġnurse":3475,"Ġfresh":3476,"redient":3477,"Ġingredient":3478,"Ġrubbed":3479,"Ġpant":3480,"Ġthinking":3481,"Ġlollipop":3482,"ision":3483,"Ġsauce":3484,"Ġcreate":3485,"fa":3486,"time":3487,"Ġending":3488,"eezed":3489,"Ġmask":3490,"Ġchar":3491,"Ġpattern":3492,"Ġspaghetti":3493,"Ġseeds":3494,"Ġclock":3495,"ĠGrandpa":3496,"ibb":3497,"gest":3498,"ÅĵWhat":3499,"Ġdolphin":3500,"Ġshocked":3501,"Ġload":3502,"Ġsquare":3503,"Ġcrocodile":3504,"Ġumbrella":3505,"Ġstage":3506,"Ġshiver":3507,"Ġsne":3508,"Ġjacket":3509,"uper":3510,"Ġpige":3511,"Ġcompassion":3512,"Ġtowers":3513,"Ġtem":3514,"Ġnumbers":3515,"Ġdriving":3516,"Ġpeeked":3517,"Ġwing":3518,"Ġfriendship":3519,"Ġstamp":3520,"Ġpersist":3521,"Ġbeetle":3522,"ĠFin":3523,"Ġpatch":3524,"Ġgraceful":3525,"Ġmel":3526,"Ġbiggest":3527,"Ġengine":3528,"Ġstack":3529,"Ġdreaming":3530,"Ġflexible":3531,"Ġnature":3532,"Ġearth":3533,"âĤ¬âĢ":3534,"Ġtied":3535,"Ġpirate":3536,"arsh":3537,"Ġshel":3538,"Ġpup":3539,"Ġcrazy":3540,"Ġstranger":3541,"Ow":3542,"ellig":3543,"Ġimpressive":3544,"Ġspilled":3545,"Ġtorn":3546,"Ġintellig":3547,"Ġcere":3548,"host":3549,"Ġsparkled":3550,"Ġenth":3551,"Ġpengu":3552,"Ġwarned":3553,"Ġmeal":3554,"Ġtruth":3555,"Ġstatue":3556,"Ġtooth":3557,"ĠFr":3558,"Ġearly":3559,"Ġenv":3560,"Ġsurf":3561,"Ġprize":3562,"io":3563,"loo":3564,"Ġreward":3565,"Ġenthus":3566,"Ġsudden":3567,"ÅĵIt":3568,"ĠWhile":3569,"Ġpale":3570,"Ġmailbox":3571,"Ġcomput":3572,"Ġghost":3573,"Ġliz":3574,"Ġwindows":3575,"Ġpenny":3576,"Ġcomb":3577,"Ġenvelope":3578,"ikes":3579,"Ġingredients":3580,"Ġbent":3581,"Ġtravel":3582,"Ġimagined":3583,"Ġorder":3584,"Ġsadly":3585,"illie":3586,"awn":3587,"Ġtriang":3588,"Ġlibrary":3589,"Ġsorts":3590,"ement":3591,"Ġpiano":3592,"Ġdiscover":3593,"ophie":3594,"While":3595,"Ġfork":3596,"iches":3597,"ĠMummy":3598,"Ġjumps":3599,"Ġtur":3600,"Ġahead":3601,"Ġscale":3602,"Ġspring":3603,"Ġdesk":3604,"Ġscreen":3605,"Ġnote":3606,"Ġbadly":3607,"Mary":3608,"Ġhandle":3609,"Ġbracelet":3610,"Ġavo":3611,"ĠHere":3612,"Ġplaced":3613,"ief":3614,"Ġslides":3615,"Ġtunnel":3616,"Ġcereal":3617,"Ġperm":3618,"ĠSn":3619,"Ġgrowing":3620,"Ġrece":3621,"Ġcrane":3622,"Ġpretending":3623,"Ġspoke":3624,"Ġer":3625,"Ġolder":3626,"Ġreading":3627,"Ġflute":3628,"Ġwire":3629,"ince":3630,"Ġsofa":3631,"Ġcounting":3632,"Ġhumble":3633,"Ġtrash":3634,"ÅĵLetÃ¢":3635,"Ġnames":3636,"Ġcryst":3637,"Ġcomplet":3638,"Ġdestroy":3639,"ud":3640,"Ġturkey":3641,"aid":3642,"Ġtrap":3643,"ĠKim":3644,"Ġscatter":3645,"ĠDave":3646,"ĠLook":3647,"Ġsuper":3648,"comfort":3649,"Ġgor":3650,"Ġmush":3651,"Ġharmless":3652,"Ġshut":3653,"Ġmole":3654,"bled":3655,"cream":3656,"ĠcouldnÃ¢":3657,"Yay":3658,"Ġpersistent":3659,"Ġencou":3660,"Ġcompl":3661,"comfortable":3662,"Ġtire":3663,"uddy":3664,"Ġphot":3665,"ĠPe":3666,"Ġbeauty":3667,"Ġbutterflies":3668,"Ġpow":3669,"Ġuncomfortable":3670,"ĠGive":3671,"Ġintelligent":3672,"Ġjug":3673,"Ġtrick":3674,"Ġmay":3675,"Ġsandwiches":3676,"Ġcards":3677,"Ġcelebrate":3678,"Ġletters":3679,"Ġcollar":3680,"Ġnail":3681,"Ġcupboard":3682,"Ġblueber":3683,"Ġparade":3684,"Ġbeep":3685,"Ġbandage":3686,"Ġanx":3687,"Ġscoot":3688,"Ġcooking":3689,"Ġquestion":3690,"Ġcomputer":3691,"Ġdeaf":3692,"Ġhung":3693,"Ġgifted":3694,"Ġlizard":3695,"Ġuncle":3696,"orant":3697,"ric":3698,"ĠToby":3699,"Ġanxious":3700,"Ġcarp":3701,"Ġrefused":3702,"Ġgloomy":3703,"Ġobject":3704,"ubby":3705,"Ġcompetitive":3706,"Ġtask":3707,"Ġtwirled":3708,"Ġordinary":3709,"ips":3710,"Ġleash":3711,"Ġsnuggled":3712,"gust":3713,"Ġvalue":3714,"Re":3715,"ĠBear":3716,"Ġstickers":3717,"Ġhunter":3718,"Ġcourage":3719,"ices":3720,"enry":3721,"Ġyawn":3722,"Ġcharming":3723,"Give":3724,"Ġsunflower":3725,"Ġspeed":3726,"tter":3727,"aches":3728,"Ġdisgust":3729,"Ġneat":3730,"Ġbicy":3731,"Ġchasing":3732,"Ġchance":3733,"Ġstation":3734,"Ġignorant":3735,"Ġhurry":3736,"Ġgum":3737,"Ġrules":3738,"Ġdrawer":3739,"Ġcurt":3740,"ĠPat":3741,"Alice":3742,"aby":3743,"Ġtap":3744,"Ġattract":3745,"Ġcurtain":3746,"Ġflour":3747,"Ġpants":3748,"oe":3749,"Ġsoldier":3750,"ĠLola":3751,"Ġuniver":3752,"Ġsett":3753,"Ġmushroom":3754,"Ġcamp":3755,"arian":3756,"Ġbase":3757,"Ġanywhere":3758,"Ġshine":3759,"Ġalert":3760,"Ġwishes":3761,"Ġhook":3762,"Ġrice":3763,"Ġsend":3764,"erable":3765,"opus":3766,"ctopus":3767,"stri":3768,"Ġchubby":3769,"Ġstarts":3770,"Ġmiserable":3771,"Ġpackage":3772,"ceed":3773,"Ġpigeon":3774,"iest":3775,"Ġbounced":3776,"cut":3777,"used":3778,"Ġshouts":3779,"Ġhipp":3780,"Ġled":3781,"Ġotter":3782,"Ġcompassionate":3783,"Ġcarpet":3784,"Ġshaking":3785,"Ġwaff":3786,"ĠSm":3787,"ses":3788,"Ġsupport":3789,"Ġdug":3790,"Ġcricket":3791,"Ġoctopus":3792,"Ġallig":3793,"Ġimpat":3794,"Ġcreatures":3795,"Ġclub":3796,"Ġlively":3797,"Ġpressed":3798,"Ġhelpless":3799,"Ġpasta":3800,"Ġcase":3801,"Ġmill":3802,"Ġfearful":3803,"cu":3804,"Ġpepper":3805,"Ġhelmet":3806,"Ġsquash":3807,"arlie":3808,"Ġitself":3809,"Ġtray":3810,"If":3811,"urb":3812,"Ġimpatient":3813,"Ġbrighter":3814,"Ġdisgusting":3815,"Ġpoem":3816,"coa":3817,"Ġcartoon":3818,"ĠAre":3819,"ĠEventually":3820,"Ġstretched":3821,"Ġenvious":3822,"Ġribb":3823,"Ġhuman":3824,"aked":3825,"Ġbackpack":3826,"ĠWh":3827,"Ġbet":3828,"Ġpurse":3829,"Ġjeep":3830,"Ġdisturb":3831,"aff":3832,"Ġnobody":3833,"heart":3834,"ĠPolly":3835,"Ġthief":3836,"Ġshoe":3837,"Ġstretch":3838,"ĠWhere":3839,"Ġener":3840,"Ġaftern":3841,"Ġleop":3842,"Ġafternoon":3843,"Ġresist":3844,"ummer":3845,"aurant":3846,"Ġmelon":3847,"Ġdecorate":3848,"Ġpony":3849,"Ġpracticed":3850,"Ġtrump":3851,"Ġneedle":3852,"Bye":3853,"Ġfilthy":3854,"Ġjet":3855,"Ġrestaurant":3856,"ĠAl":3857,"Ġsucceed":3858,"Ġvi":3859,"Ġvide":3860,"Ġsandbox":3861,"Ġrepe":3862,"Ġcandle":3863,"Ġcrystal":3864,"Ġsomewhere":3865,"Ġmug":3866,"Benny":3867,"orable":3868,"Ġbri":3869,"Ġgir":3870,"ĠSh":3871,"ÅĵThat":3872,"Ġnuts":3873,"Daisy":3874,"Ġdess":3875,"Ġmagnet":3876,"Ġgorilla":3877,"Ġsteps":3878,"Ġpand":3879,"Ġspell":3880,"Ġbarking":3881,"Ġrestless":3882,"Ġten":3883,"Ġattractive":3884,"ĠBill":3885,"Ġskip":3886,"icop":3887,"icopter":3888,"Ġmuff":3889,"lcano":3890,"strich":3891,"Ġcube":3892,"Ġgiggle":3893,"Ġbicycle":3894,"Ġcocoa":3895,"Ġcomet":3896,"Ġtemp":3897,"aroo":3898,"Ġraven":3899,"angaroo":3900,"Ġanyway":3901,"gie":3902,"Ġnowhere":3903,"Ġmath":3904,"Ġhelicopter":3905,"Ġmeas":3906,"Ġmonkeys":3907,"Ġattic":3908,"ĠGeorge":3909,"gn":3910,"Ġants":3911,"Ġadorable":3912,"Ġcooked":3913,"Ġradio":3914,"Ġfurther":3915,"Ġgrabs":3916,"Ġhippo":3917,"ĠLee":3918,"Ġfireman":3919,"Ġimpro":3920,"Ġkangaroo":3921,"Ġfinds":3922,"Ġrespectful":3923,"Ġscrew":3924,"gging":3925,"stic":3926,"Ġthread":3927,"Ġbarrel":3928,"ĠMandy":3929,"Ġvolcano":3930,"Ġdistant":3931,"ĠTweetie":3932,"Ġtrumpet":3933,"Ġstared":3934,"night":3935,"Ġalligator":3936,"Ġsoar":3937,"Ġstirred":3938,"Ġpulls":3939,"Ġbatht":3940,"Ġleopard":3941,"Ġfu":3942,"llie":3943,"Ġfive":3944,"Ġenthusia":3945,"ĠJoey":3946,"Ġbathtub":3947,"Ġenthusiastic":3948,"Ġcats":3949,"stairs":3950,"ĠBrownie":3951,"Ġharsh":3952,"Ġreco":3953,"Ġexplain":3954,"Ġtroubled":3955,"Ġpun":3956,"Ġadmire":3957,"Ġlid":3958,"Ġmodest":3959,"ĠCl":3960,"Ġquar":3961,"Ġtripped":3962,"Ġshield":3963,"par":3964,"shed":3965,"Ġsent":3966,"Ġpaws":3967,"Ġsepar":3968,"Ġbreat":3969,"Ġfort":3970,"Ġunpack":3971,"Ġtriangle":3972,"Ġsock":3973,"Ġvine":3974,"ĠEverything":3975,"Ġhappier":3976,"Ġorganize":3977,"Ġsle":3978,"Ġur":3979,"Ġseal":3980,"Ġlistening":3981,"Ġscooter":3982,"Little":3983,"eer":3984,"come":3985,"Ġjellyfish":3986,"Ġostrich":3987,"Ġrepair":3988,"Ġsalt":3989,"Ġfle":3990,"Ġrescue":3991,"Ġriding":3992,"Ġsort":3993,"Ġfirework":3994,"Ġfrowned":3995,"Ġquite":3996,"Everyone":3997,"Ġdessert":3998,"ĠJerry":3999,"Ġmama":4000,"ophone":4001,"irit":4002,"Ġsailor":4003,"Ġhall":4004,"Ġexper":4005,"Ġgiven":4006,"Ġsplit":4007,"Ġpaid":4008,"Ġsecond":4009,"Ġsticker":4010,"Ġbikes":4011,"Ġcows":4012,"Ġpal":4013,"Ġsummer":4014,"Ġchalk":4015,"Ġsweetheart":4016,"Ġpipe":4017,"Ġelev":4018,"iskers":4019,"uct":4020,"Ġeither":4021,"Ġmessage":4022,"cycle":4023,"bul":4024,"Ġholes":4025,"ĠWould":4026,"Ġpushing":4027,"Ġpushes":4028,"Ġchain":4029,"Ġwallet":4030,"ĠdidnÃ¢":4031,"ĠSmith":4032,"Ġloop":4033,"Ġlions":4034,"Ġobser":4035,"Ġsweater":4036,"hood":4037,"Ġbears":4038,"Ġsize":4039,"olin":4040,"Ġelevator":4041,"elery":4042,"Ġmeat":4043,"Ġpole":4044,"Ġsheet":4045,"ucked":4046,"Ġbuzz":4047,"Ġchecked":4048,"ipping":4049,"ccol":4050,"apa":4051,"Ġcountry":4052,"Ġhive":4053,"inking":4054,"Ġdishes":4055,"astic":4056,"year":4057,"Ġswitch":4058,"Ġjokes":4059,"Ġlightning":4060,"Ġtrains":4061,"Ġlip":4062,"Ġhaircut":4063,"Ġroared":4064,"Ġoy":4065,"ĠAlex":4066,"ccoli":4067,"Ġreind":4068,"Ġluck":4069,"Ġswinging":4070,"Ġpalace":4071,"Ġforgave":4072,"rec":4073,"Ġshakes":4074,"Ġpapers":4075,"erop":4076,"Ġbehave":4077,"eropl":4078,"Ġped":4079,"Ġscold":4080,"happy":4081,"Ġrecogn":4082,"Ġaeropl":4083,"Ġcush":4084,"Ġspirit":4085,"Ġshade":4086,"Ġwheat":4087,"Ġsilver":4088,"Ġalive":4089,"Ġstarting":4090,"Ġprov":4091,"edy":4092,"Ġspeak":4093,"Ġbelt":4094,"Ġbasketball":4095,"Ġeras":4096,"Grandma":4097,"Ġfalling":4098,"ube":4099,"Ġbin":4100,"Ġhedge":4101,"aled":4102,"ense":4103,"cast":4104,"Ġshopkeeper":4105,"Ġcostume":4106,"Ġreindeer":4107,"Ġpeek":4108,"Ġcelery":4109,"Ġevening":4110,"ebook":4111,"Ġmicr":4112,"Ġclapping":4113,"Ġraft":4114,"Ġvisited":4115,"Ġoat":4116,"Ġnotebook":4117,"Ġpilot":4118,"Ġambul":4119,"Ġsandcast":4120,"ĠBet":4121,"ĠOr":4122,"reci":4123,"Ġgrapes":4124,"Ġshovel":4125,"Ġpanda":4126,"aggie":4127,"Ġunhappy":4128,"Ġbroccoli":4129,"Ġsaus":4130,"icer":4131,"Ġsoftly":4132,"ÅĵYou":4133,"Ġzoomed":4134,"Ġcardboard":4135,"Ġmild":4136,"Ġlear":4137,"Ġneighbour":4138,"Ġappreci":4139,"Ġlearnt":4140,"play":4141,"Ġpenguin":4142,"Ha":4143,"Ġknot":4144,"Jenny":4145,"Ġmicrophone":4146,"Ġpor":4147,"Ġcolours":4148,"Ġenergy":4149,"Ġbarks":4150,"Ġinse":4151,"Ġsoil":4152,"Ġtax":4153,"Ġrod":4154,"Ġmen":4155,"iling":4156,"ĠBuddy":4157,"Ġtube":4158,"ooped":4159,"nger":4160,"aulif":4161,"Ġbur":4162,"aulifl":4163,"ĠTr":4164,"Ġavail":4165,"Ġrubber":4166,"Ġsprink":4167,"Ġended":4168,"Ġplanet":4169,"Ġambulance":4170,"Ġgro":4171,"Ġboots":4172,"Ġsteak":4173,"Ġputting":4174,"Ġcact":4175,"Ġstrawberry":4176,"Ġol":4177,"Ġmarched":4178,"Ġjournal":4179,"ffe":4180,"Ġdisplay":4181,"ĠRed":4182,"Daddy":4183,"Ġcord":4184,"Ġavailable":4185,"ffee":4186,"seum":4187,"Ġlawy":4188,"Ġavoc":4189,"Ġlaund":4190,"Ġbreaks":4191,"ĠSophie":4192,"Ġclimbing":4193,"ait":4194,"Ġflies":4195,"Ġsmells":4196,"Ġviolin":4197,"Ġtricks":4198,"Ġgoal":4199,"Ġlaundry":4200,"Ġlend":4201,"ĠBunny":4202,"Ġpolish":4203,"Ġshelter":4204,"Ġstrugg":4205,"Ġraining":4206,"Ġpad":4207,"Ġjudge":4208,"Ġcaulifl":4209,"imi":4210,"Ġtaxi":4211,"Ġart":4212,"Ġmuseum":4213,"mand":4214,"Ġshrimp":4215,"Ġbananas":4216,"Ġframe":4217,"Ġpair":4218,"Ġprun":4219,"Ġleaned":4220,"Ġstom":4221,"Ġyogurt":4222,"Ġbul":4223,"Ġfeelings":4224,"Ġpainter":4225,"Ġthanks":4226,"ĠWhiskers":4227,"ges":4228,"Ġheads":4229,"ron":4230,"iron":4231,"Ġmedal":4232,"Ġbelongs":4233,"Ġquit":4234,"reeze":4235,"Ġcactus":4236,"Ġdrawings":4237,"Ġdive":4238,"Ġairport":4239,"Ġshort":4240,"rr":4241,"Ġflame":4242,"Ġhoping":4243,"Ġink":4244,"azz":4245,"urch":4246,"Ġtreasures":4247,"Ġeraser":4248,"Ġinsist":4249,"Ġmarry":4250,"Ġgolf":4251,"Ġrolling":4252,"Ġunlock":4253,"Ġdrops":4254,"Ġhadn":4255,"Ġbulb":4256,"pe":4257,"Ġcups":4258,"Ġquarrel":4259,"ecause":4260,"Ġcauliflower":4261,"ĠAndy":4262,"Ġtub":4263,"ophy":4264,"nam":4265,"Ġswung":4266,"hino":4267,"Ġstuffed":4268,"Ġapologized":4269,"Ġcomplete":4270,"render":4271,"Ġrag":4272,"Ġvend":4273,"Ġvest":4274,"ĠBun":4275,"ĠSnow":4276,"ĠPaul":4277,"eath":4278,"Ġpoint":4279,"Ġpage":4280,"Ġrever":4281,"Ġskill":4282,"ected":4283,"sely":4284,"ĠdonÃ¢":4285,"Ġfilm":4286,"Ġeagerly":4287,"Ġwool":4288,"ĠTed":4289,"Ġincl":4290,"ween":4291,"Ġimagine":4292,"Ġfields":4293,"Ġtrophy":4294,"Ġcoffee":4295,"Ġhotel":4296,"kelet":4297,"ĠPapa":4298,"Ġappl":4299,"Ġkitty":4300,"Ġknob":4301,"Ġdisag":4302,"Ġonion":4303,"Ġfootball":4304,"Ġbetween":4305,"Ġshouldn":4306,"place":4307,"Ġthrows":4308,"ef":4309,"Ġrhino":4310,"âĤ¬âĢľ":4311,"izes":4312,"Ġcheek":4313,"osie":4314,"Ġcounter":4315,"Ġsunset":4316,"Ġminute":4317,"anic":4318,"zzy":4319,"Ġimagination":4320,"Ġyach":4321,"Ġforgotten":4322,"Ġphoto":4323,"Ġmule":4324,"Ġwinter":4325,"Ġsym":4326,"Ġchirp":4327,"Ġperfectly":4328,"Ġlives":4329,"Ġlaser":4330,"Ġlawyer":4331,"Ġpeach":4332,"Ġclosely":4333,"Ġcherries":4334,"Ġfrogs":4335,"Ġoil":4336,"chanic":4337,"Ġfolder":4338,"Ġplayer":4339,"Ġtuna":4340,"Ġlie":4341,"Ġporch":4342,"Ġseeing":4343,"Ġpoints":4344,"ito":4345,"Ġmechanic":4346,"Ġcooler":4347,"stead":4348,"ccer":4349,"gen":4350,"Ġskelet":4351,"Ġpoke":4352,"Ġbaking":4353,"Ġattention":4354,"Ġfreez":4355,"nament":4356,"Ġwaving":4357,"Ġpine":4358,"Ġmagaz":4359,"spap":4360,"iture":4361,"Ġkay":4362,"urniture":4363,"Ġaeroplane":4364,"Ġpirates":4365,"Ġinsect":4366,"Ġnewspap":4367,"Ġdiary":4368,"Ġvendor":4369,"Ġornament":4370,"Ġax":4371,"Ġfurniture":4372,"Ġcreated":4373,"aces":4374,"squ":4375,"Ġsoccer":4376,"Ġshouting":4377,"Ġyacht":4378,"Ġwife":4379,"Ġslept":4380,"Ġtwink":4381,"Ġcoal":4382,"Ġflea":4383,"bol":4384,"Ġhut":4385,"ites":4386,"ĠRo":4387,"ĠSandy":4388,"Ġsir":4389,"ctory":4390,"Ġsquirrels":4391,"Ġsymbol":4392,"Ch":4393,"ney":4394,"ides":4395,"ĠWill":4396,"Ġmixer":4397,"Ġfireplace":4398,"Ġstud":4399,"Ġmotorcycle":4400,"Ġfactory":4401,"Ġmosqu":4402,"Ġvideo":4403,"Ġherb":4404,"Ġheaded":4405,"aws":4406,"Ġskull":4407,"Ġwipe":4408,"affe":4409,"Ġchurch":4410,"Ġsurrender":4411,"Ġglove":4412,"Ġskeleton":4413,"ories":4414,"ckey":4415,"igloo":4416,"Your":4417,"Ġhockey":4418,"Ġigloo":4419,"Inside":4420,"Ġitch":4421,"Ġvet":4422,"Ġoffer":4423,"Ġmosquito":4424,"Ġcalls":4425,"Ġargue":4426,"Ġtheater":4427,"Ġpetals":4428,"Ġreef":4429,"any":4430,"Ġgrin":4431,"Ġpit":4432,"gl":4433,"Ġaxe":4434,"Ġshower":4435,"Ġtemple":4436,"ĠMaria":4437,"Ġblowing":4438,"Ġmaze":4439,"Eventually":4440,"ĠAnnie":4441,"..":4442,"Ġzipper":4443,"Ġslipper":4444,"Ġfisher":4445,"ĠGrace":4446,"Ġbreeze":4447,"Ġweather":4448,"Ġgreedy":4449,"Ġcushion":4450,"Ġlime":4451,"Ġslippery":4452,"ĠBaby":4453,"Ġtrave":4454,"Ġchickens":4455,"ceros":4456,"Ġmeeting":4457,"Ġsneak":4458,"elcome":4459,"Ġpopped":4460,"Ġtrail":4461,"right":4462,"Ġplastic":4463,"ues":4464,"Ġshoulder":4465,"Ġoyster":4466,"Ġflapped":4467,"Ġcelebrated":4468,"Ġgiraffe":4469,"Ġfishing":4470,"Ġbouncing":4471,"Ġgrocer":4472,"Ġgolden":4473,"istol":4474,"orses":4475,"Ġlotion":4476,"mm":4477,"Ġdoors":4478,"Ġparent":4479,"Ġpistol":4480,"Ġbury":4481,"unately":4482,"Ġvroom":4483,"Ġglowing":4484,"Ġhorses":4485,"hero":4486,"ĠMillie":4487,"Ġcable":4488,"glass":4489,"ison":4490,"rod":4491,"Ġwelcomed":4492,"Ġhanging":4493,"Ġrhinoceros":4494,"Ġnovel":4495,"Ġiron":4496,"Ġswamp":4497,"Ġseas":4498,"Ġsuperhero":4499,"Ġpowder":4500,"Ġbattery":4501,"angu":4502,"men":4503,"Ġhopes":4504,"tain":4505,"Ġintrod":4506,"Ġsniffed":4507,"Ġkingdom":4508,"Ġwags":4509,"ĠCharlie":4510,"Ġfauc":4511,"Ġdear":4512,"Ġreve":4513,"Ġradish":4514,"Ġsurround":4515,"Ġmemories":4516,"Ġkayak":4517,"ĠitÃ¢":4518,"rosc":4519,"Ġcomplain":4520,"Ġlangu":4521,"Ġcob":4522,"Ġsticky":4523,"was":4524,"Ġsunglass":4525,"Ġunif":4526,"Ġsailing":4527,"Ġsunglasses":4528,"Ġrot":4529,"una":4530,"Ġmatt":4531,"Ġwriting":4532,"Ġinvest":4533,"Ġbaseball":4534,"Ġmattress":4535,"ĠGod":4536,"ssible":4537,"Ġuniform":4538,"Ġceiling":4539,"Ġcabinet":4540,"web":4541,"alley":4542,"inarian":4543,"Ġsque":4544,"eterinarian":4545,"Ġnapkin":4546,"roscope":4547,"Ġeaten":4548,"Ġclassroom":4549,"Ġhappens":4550,"ĠUn":4551,"Ġsub":4552,"Ġquack":4553,"washer":4554,"Ġcell":4555,"Sammy":4556,"Ġble":4557,"Ġveterinarian":4558,"Ġfollows":4559,"Ġinvestig":4560,"Wait":4561,"Ġmystery":4562,"Ġshrugged":4563,"Ġsprayed":4564,"ĠHenry":4565,"imney":4566,"Ġdishwasher":4567,"Ġfaucet":4568,"Ġsince":4569,"Ġignored":4570,"Emma":4571,"Ġstreng":4572,"Ġcared":4573,"medi":4574,"Ġmistakes":4575,"Ġfought":4576,"ĠLilly":4577,"Ġfisherman":4578,"ab":4579,"Ġpassport":4580,"Ġchimney":4581,"Ġdancer":4582,"ĠInstead":4583,"mediately":4584,"ĠIÃ¢":4585,"Ġmoves":4586,"Ġvalley":4587,"Ġmicroscope":4588,"Ġagree":4589,"Ġtear":4590,"Ġbother":4591,"Ġstaff":4592,"ĠMimi":4593,"Ġstrength":4594,"case":4595,"erc":4596,"Ġburned":4597,"Ġcobweb":4598,"ler":4599,"vision":4600,"Ġtoil":4601,"inked":4602,"Ġoak":4603,"Together":4604,"Ġblankets":4605,"Ġthrowing":4606,"Next":4607,"Ġtut":4608,"Ġprevent":4609,"Ġhar":4610,"Ġattach":4611,"Ġcollected":4612,"chie":4613,"Ġnews":4614,"Ġyield":4615,"Ġcane":4616,"Ġalarm":4617,"Ġfreezer":4618,"reek":4619,"te":4620,"ĠJess":4621,"Today":4622,"Ġweigh":4623,"Ġseparate":4624,"Ġcreek":4625,"Ġquietly":4626,"Ġworth":4627,"Ġtoilet":4628,"Ġanch":4629,"ĠRosie":4630,"Ġcrow":4631,"Ġinvestigate":4632,"Ġchoice":4633,"Ġnewspaper":4634,"aud":4635,"Ġdiscu":4636,"Ġagre":4637,"Ġyoga":4638,"Ġtug":4639,"Ġgym":4640,"Ġskirt":4641,"ives":4642,"rs":4643,"Ġavocado":4644,"Ġpastry":4645,"Ġtelevision":4646,"anges":4647,"Ġjewelry":4648,"Ġexerc":4649,"Ġpresents":4650,"Ġsizes":4651,"chair":4652,"Thanks":4653,"Ġmop":4654,"Ġveil":4655,"ĠTony":4656,"Ġcoats":4657,"Ġregret":4658,"Ġrise":4659,"ÅĵItÃ¢":4660,"Ġdelay":4661,"Ġscolded":4662,"Ġanchor":4663,"Ġsuff":4664,"Ġpur":4665,"Ġlicks":4666,"Ġcastles":4667,"Ġwhisper":4668,"Ġapplaud":4669,"house":4670,"Ġpuddles":4671,"Qu":4672,"Ġcaring":4673,"Ġchess":4674,"Ġentered":4675,"Ġstraight":4676,"Ġfloat":4677,"Because":4678,"Ġraz":4679,"ĠKate":4680,"Ġbeef":4681,"Ġapart":4682,"Ġtrusted":4683,"ĠNext":4684,"omes":4685,"Ġperfu":4686,"Ġimprove":4687,"Ġclaws":4688,"Ġboot":4689,"Ġarmchair":4690,"Ġaccepted":4691,"Ġstable":4692,"Ġfile":4693,"Ġmusician":4694,"Ġtucked":4695,"iday":4696,"Ġblinked":4697,"Ġdressed":4698,"Ġkisses":4699,"Ġopera":4700,"ĠDanny":4701,"Ġrooms":4702,"Ġmatches":4703,"Ġfog":4704,"Ġmagazine":4705,"Ġdisappear":4706,"Ann":4707,"ring":4708,"Ġdemand":4709,"ĠHelp":4710,"Ġmakeup":4711,"Ġmint":4712,"Ġeasily":4713,"Ġsteam":4714,"Ġgrill":4715,"Ġpear":4716,"Ġkeeping":4717,"Ġward":4718,"Ġpra":4719,"ĠMiss":4720,"Ġcrib":4721,"Ġblood":4722,"sit":4723,"Ġsigh":4724,"Ġcandles":4725,"Ġbookcase":4726,"Ġticket":4727,"Ġwardrobe":4728,"ĠSee":4729,"Ġchairs":4730,"ggy":4731,"Ġworms":4732,"Ġperfume":4733,"Ġstro":4734,"mend":4735,"asis":4736,"Ġsnap":4737,"Ġsplashing":4738,"ampoo":4739,"ĠHarry":4740,"Ġamazement":4741,"anny":4742,"ety":4743,"Ġrazor":4744,"Ġtornado":4745,"Ġcrawling":4746,"Ġappro":4747,"Ġblueberries":4748,"ores":4749,"uckily":4750,"Ġlawn":4751,"Ġribbon":4752,"Ġsqueezed":4753,"Ġmustache":4754,"Ġwigg":4755,"Ġpuzzles":4756,"Ġpinch":4757,"Ġhol":4758,"Ġoasis":4759,"Ġletting":4760,"Ġrecom":4761,"Ġcrossed":4762,"Ġholiday":4763,"Ġrecommend":4764,"ival":4765,"Did":4766,"Ġaut":4767,"Ġrake":4768,"Ġshampoo":4769,"Ġtutor":4770,"Ġwarmth":4771,"hic":4772,"ived":4773,"cage":4774,"Ġinf":4775,"raged":4776,"ĠJul":4777,"Ġblouse":4778,"Ġvehic":4779,"Ġrelaxed":4780,"ĠRu":4781,"Ġweep":4782,"Ġsqueeze":4783,"Ġroot":4784,"ah":4785,"ĠAb":4786,"Is":4787,"Ġlanguage":4788,"eve":4789,"Ġhurting":4790,"Ġserve":4791,"Ġrail":4792,"ĊĠ":4793,"Ġbirdcage":4794,"Ġpoked":4795,"ction":4796,"Ġminer":4797,"Ġhelper":4798,"Ġsi":4799,"lend":4800,"Ġmuffin":4801,"ups":4802,"Ġideas":4803,"Ġwandered":4804,"Ġwaste":4805,"ĠWho":4806,"Ġjunk":4807,"iction":4808,"Ġharb":4809,"Ġrequ":4810,"âĤ¬.":4811,"Ġbelow":4812,"Ġteleph":4813,"Ġsandcastle":4814,"Ġhearts":4815,"Ġyucky":4816,"Ġlic":4817,"bbie":4818,"cus":4819,"Ġincre":4820,"Ġgrowled":4821,"ictionary":4822,"ĠRe":4823,"Ġmarried":4824,"Ġringing":4825,"Ġshrink":4826,"Ġfest":4827,"Ġinstr":4828,"Ġbill":4829,"ĠSu":4830,"Ġbathe":4831,"Ġdictionary":4832,"Ġthumb":4833,"Ġtelephone":4834,"fortunately":4835,"Ġcub":4836,"Ġmass":4837,"Ġplanes":4838,"Ġstrawberries":4839,"Ġplates":4840,"Ġweap":4841,"Mandy":4842,"Ġreaches":4843,"Ġsubway":4844,"Ġbegged":4845,"Ġkneel":4846,"Ġberry":4847,"Ġraise":4848,"Ġsurprises":4849,"ĠTrue":4850,"Ġisn":4851,"Ġfallen":4852,"Ġcalend":4853,"Ġrefre":4854,"Ġcliff":4855,"Ġsneeze":4856,"Ġmyself":4857,"Ġfollowing":4858,"Ġlumber":4859,"Ġbookshe":4860,"Ġmissile":4861,"Ġflutter":4862,"Ġtrade":4863,"ising":4864,"icing":4865,"Ġburied":4866,"Ġwine":4867,"Ġbumped":4868,"Ġcalendar":4869,"Ġprop":4870,"Ġdire":4871,"Ġimmediately":4872,"Ġunderstanding":4873,"Ġcaptain":4874,"Ġbravely":4875,"Ġharbor":4876,"Ġrequest":4877,"Ġmoments":4878,"Ġenter":4879,"inky":4880,"Ġdried":4881,"Ġsnapped":4882,"Ġbleed":4883,"Ġtong":4884,"Ġquiz":4885,"cakes":4886,"Ġbeamed":4887,"Ġspear":4888,"Ġreverse":4889,"sters":4890,"Ġcrash":4891,"Ġwaffle":4892,"Ġbookshelf":4893,"'ve":4894,"Yuck":4895,"Ġvac":4896,"Ġsupply":4897,"omeday":4898,"Ġlaught":4899,"Ġremove":4900,"Ġexperience":4901,"Welcome":4902,"omob":4903,"Ok":4904,"Ġsocks":4905,"Will":4906,"Ġgear":4907,"Ġinvite":4908,"amber":4909,"htray":4910,"Ġblackboard":4911,"Ġashtray":4912,"ĠJames":4913,"Ġskills":4914,"lier":4915,"achel":4916,"Ġalright":4917,"Ġlaughter":4918,"Ġport":4919,"Ġhanger":4920,"Ġlemonade":4921,"Ġdestroyed":4922,"Ġautomob":4923,"ium":4924,"aped":4925,"Ġdresses":4926,"oral":4927,"ission":4928,"Ġlicense":4929,"Ġsparkling":4930,"Ġcuddled":4931,"Ġspots":4932,"riger":4933,"Ġrabbits":4934,"Ġscattered":4935,"rigerator":4936,"Ġtoes":4937,"Ġpermission":4938,"Ġpages":4939,"Ġapron":4940,"Ġrefrigerator":4941,"Ġjail":4942,"Ġjewels":4943,"Ġhardly":4944,"Ġtaller":4945,"Ġlabel":4946,"Ġsaving":4947,"Ġhits":4948,"Ġyawned":4949,"Ġfestival":4950,"asp":4951,"Ġdestination":4952,"atie":4953,"Ġitem":4954,"Ġteaching":4955,"Ġfuel":4956,"!'":4957,"Ġwhip":4958,"Ġknown":4959,"Ġinsisted":4960,"Ġsomeday":4961,"Ġdifferen":4962,"Ġadmir":4963,"Ġbreathe":4964,"Ġairpl":4965,"Ġspending":4966,"ĠFreddy":4967,"Ġhomes":4968,"Ġignore":4969,"Lisa":4970,"ĠMay":4971,"Ġrow":4972,"Ġpatiently":4973,"ĠClara":4974,"ucture":4975,"Ġbeans":4976,"Ġstructure":4977,"Ġbalan":4978,"reat":4979,"With":4980,"ĠSnowy":4981,"ĠHave":4982,"Ġscooped":4983,"Ġsafety":4984,"Ġearlier":4985,"ĠKing":4986,"ents":4987,"Ġpride":4988,"Ġremain":4989,"Ġbelieved":4990,"Ġbuzzing":4991,"ĠIts":4992,"Ġdecorations":4993,"ari":4994,"Ġsettled":4995,"Ġprepare":4996,"Ġspade":4997,"Ġfastest":4998,"Ġbuckle":4999,"Ġpulling":5000,"Ġachie":5001,"Ġwashing":5002,"Ġlily":5003,"ops":5004,"Ġchamber":5005,"ctly":5006,"Ġpraised":5007,"Ġreplace":5008,"Ġres":5009,"Ġsits":5010,"Ġreceived":5011,"Ġdeeper":5012,"ĠPeople":5013,"ĠFo":5014,"ÅĵNo":5015,"Ġfiref":5016,"Ġbak":5017,"atch":5018,"Ġplays":5019,"Ġbrain":5020,"Ġchirping":5021,"Ġgifts":5022,"Ġvanished":5023,"Jen":5024,"Ġsimp":5025,"Ġsparkle":5026,"igail":5027,"Ġrhy":5028,"xture":5029,"Ġappreciate":5030,"nies":5031,"Ġguy":5032,"Ġcherry":5033,"Ġfloated":5034,"Ġsparkles":5035,"Ġhills":5036,"antly":5037,"Ġcrunch":5038,"Ġencouraged":5039,"Ġnone":5040,"sing":5041,"Ġmodel":5042,"ĠEach":5043,"Ġhers":5044,"Ġpoison":5045,"izard":5046,"Ġpalm":5047,"Ġtore":5048,"Ġdare":5049,"Ġdrain":5050,"ĠOllie":5051,"Ġtongue":5052,"Ġglo":5053,"Ġmention":5054,"ĠMaggie":5055,"Ġtease":5056,"Ġmall":5057,"Ġchores":5058,"Ġoranges":5059,"rm":5060,"sity":5061,"Ġvacation":5062,"Peter":5063,"Ġflav":5064,"Ġclimbs":5065,"Ġsausage":5066,"Ġmitten":5067,"ĠCo":5068,"Ġpanic":5069,"ĠBefore":5070,"Ġfloating":5071,"Ġscratch":5072,"Ġstruggling":5073,"osed":5074,"Ġbathrobe":5075,"ĠBetsy":5076,"Ġautomobile":5077,"Ġweeks":5078,"Ġbang":5079,"ĠTina":5080,"ĠIs":5081,"Ġstad":5082,"Ġupstairs":5083,"Ġpunish":5084,"Ġstadium":5085,"Ġdigg":5086,"Ġscore":5087,"Ġrespons":5088,"Emily":5089,"Ġtherm":5090,"These":5091,"Ġworse":5092,"Ġshooting":5093,"Ġmeowed":5094,"Ġmassage":5095,"Ġsuffer":5096,"Fl":5097,"Ġsneezed":5098,"Ġinfant":5099,"Ġdigging":5100,"Ġtour":5101,"Ġshed":5102,"bey":5103,"Ġsty":5104,"Ġhate":5105,"Ġequ":5106,"Ġrestore":5107,"Ġshot":5108,"Ġsolved":5109,"Ġexamine":5110,"Ġmailman":5111,"Ġawe":5112,"Ġhesit":5113,"Ġwarning":5114,"Ġweapon":5115,"Ġthermomet":5116,"Ġlugg":5117,"thm":5118,"Ġtwisted":5119,"Ġbrings":5120,"Ġinvit":5121,"Ġprovide":5122,"Ġsew":5123,"Mmm":5124,"Ġgrinned":5125,"Ġbites":5126,"osity":5127,"Ġluggage":5128,"All":5129,"Ġheat":5130,"Ġwizard":5131,"Ġspaces":5132,"Ġelephants":5133,"Ġapproached":5134,"ĠGood":5135,"Ġbricks":5136,"fied":5137,"allen":5138,"Ġsport":5139,"Ġparts":5140,"Ġuniverse":5141,"Ġoper":5142,"Ġbillboard":5143,"Sh":5144,"ĠEveryday":5145,"Ġsetting":5146,"Ġdifference":5147,"Ġcollection":5148,"Ġneighborhood":5149,"Ġmeasured":5150,"Ġjazz":5151,"Ġmarbles":5152,"ging":5153,"ĠBuzz":5154,"Ġthermometer":5155,"anna":5156,"Ġchallen":5157,"Ġremained":5158,"ude":5159,"iers":5160,"Mark":5161,"emember":5162,"Ġthrilled":5163,"Not":5164,"ero":5165,"Ġvehicle":5166,"Ġnation":5167,"Ġranch":5168,"Ġsprinkles":5169,"aspoon":5170,"Ġrhythm":5171,"Ġgrape":5172,"Ġgrey":5173,"Ġurge":5174,"Ġstomach":5175,"do":5176,"vet":5177,"Ġseats":5178,"Ġpatterns":5179,"Ġrepeat":5180,"Ġmister":5181,"Ġteaspoon":5182,"Ġuniversity":5183,"ĠV":5184,"Ġmemory":5185,"Ġsigns":5186,"xy":5187,"Ġsupposed":5188,"allow":5189,"Ġairplane":5190,"Ġfut":5191,"Ġfixing":5192,"Ġsliding":5193,"'.":5194,"Ġsore":5195,"Ġrush":5196,"Ġfuture":5197,"Ġglowed":5198,"Ġactually":5199,"Ġdiscuss":5200,"Ġzipped":5201,"Ġflood":5202,"ls":5203,"Ġdaisy":5204,"Johnny":5205,"Ġemer":5206,"Would":5207,"Ġsings":5208,"Ġsip":5209,"Ġgain":5210,"Ġleak":5211,"Ġsoldiers":5212,"!\",":5213,"ĠLater":5214,"Ġmelted":5215,"Ġwisdom":5216,"Ġproblems":5217,"Ġinclud":5218,"Ġexercise":5219,"Ready":5220,"umble":5221,"Ġdiscovery":5222,"rise":5223,"Ġrust":5224,"Ġwatches":5225,"Ġtide":5226,"Ġpossible":5227,"Ġracing":5228,"Ġevent":5229,"oved":5230,"Ġlaid":5231,"ĠNut":5232,"eed":5233,"Ġconf":5234,"Ġpaints":5235,"Ġtwigs":5236,"Ġslice":5237,"Ġgust":5238,"Ġchewed":5239,"Ġbrus":5240,"Ġcurled":5241,"Jake":5242,"ĠLiz":5243,"Ġpillows":5244,"Ġreceive":5245,"Ġsurrounded":5246,"Ġspit":5247,"Ġcakes":5248,"ishing":5249,"Ġsunrise":5250,"Ġjogging":5251,"Ġtracks":5252,"Al":5253,"Ġours":5254,"Ġwherever":5255,"Ġbeg":5256,"avid":5257,"Ġunite":5258,"Ġcontain":5259,"Ġmarching":5260,"ĠJoy":5261,"ĠSomeone":5262,"Ġgirls":5263,"Ġscur":5264,"bbles":5265,"Ġstrang":5266,"Ġcartoons":5267,"uing":5268,"Ġlick":5269,"Ġduring":5270,"ĠFro":5271,"Ġsunlight":5272,"Ġlets":5273,"ĠRachel":5274,"Ġdecision":5275,"Le":5276,"Ġpotatoes":5277,"walk":5278,"cious":5279,"Ġmanage":5280,"Ġspoons":5281,"Ġcollecting":5282,"bers":5283,"Ġspaceship":5284,"ĠLuna":5285,"Ġwatered":5286,"Ġraised":5287,"Ġbeat":5288,"unday":5289,"Ġpaused":5290,"Ġobserve":5291,"Ġpoppy":5292,"Ġpetted":5293,"zag":5294,"ases":5295,"Ġdrinks":5296,"Ġgrocery":5297,"Ġoperation":5298,"Ġchir":5299,"Ex":5300,"Ġordered":5301,"Ġspill":5302,"Ġtomatoes":5303,"Ġchirped":5304,"Ġburning":5305,"Ġgaz":5306,"ĠSunday":5307,"Ġweight":5308,"Ġcrashed":5309,"ities":5310,"Ġkindly":5311,"ÅĵThatÃ¢":5312,"Ġcopper":5313,"Ġdoggy":5314,"Ġsatis":5315,"Ġscratched":5316,"Ġpupp":5317,"Ġcrunchy":5318,"ĠMe":5319,"Ġpigs":5320,"Ġearthqu":5321,"Ġfasc":5322,"ĠSpike":5323,"Ġsidewalk":5324,"ÅĵIÃ¢":5325,"ĠCat":5326,"Ġinvitation":5327,"Yum":5328,"Ġfed":5329,"Ġx":5330,"Ġworks":5331,"Ġgloves":5332,"Ġglitter":5333,"Ġnavy":5334,"Ġwhistled":5335,"Ġstrangers":5336,"Ġeff":5337,"Ġhurric":5338,"Ġcontinue":5339,"Ġattached":5340,"ĠSharing":5341,"igzag":5342,"Ġmountains":5343,"ĠPenny":5344,"Ġwhistling":5345,"fy":5346,"Ġwre":5347,"ĠSad":5348,"Ġdrinking":5349,"Ġadmiring":5350,"Ouch":5351,"mother":5352,"ĠChirp":5353,"Ġbes":5354,"Ġclearing":5355,"Before":5356,"Ġescaped":5357,"Ġtoe":5358,"Ġgotten":5359,"Ġscreams":5360,"Ġpeanuts":5361,"Ġfolded":5362,"ĠZoe":5363,"ddy":5364,"ipment":5365,"Ġbeds":5366,"Ġhappiest":5367,"Ġlands":5368,"Ġmenu":5369,"Ġequipment":5370,"Ġappear":5371,"hest":5372,"Ġbuildings":5373,"Ġremem":5374,"Really":5375,"Ġsafari":5376,"Ġofficer":5377,"Ġhurricane":5378,"Ġremembers":5379,"Ġskipping":5380,"Ġonwards":5381,"ĠLetÃ¢":5382,"Ġfet":5383,"ĠNot":5384,"ecture":5385,"Ġprune":5386,"Ġfascin":5387,"Ġhated":5388,"Ġbones":5389,"Ġprepared":5390,"Ġrefreshed":5391,"Ġmeasuring":5392,"Ġwaits":5393,"Ġolive":5394,"\",":5395,"Ġprice":5396,"Ġhurried":5397,"Ġnetwork":5398,"Ġbeside":5399,"Ġcomfy":5400,"Ġplanted":5401,"Ġimage":5402,"ÅĵThank":5403,"Ġwonders":5404,"ĠNutty":5405,"Ġlecture":5406,"Ġturning":5407,"ĠPoppy":5408,"Ġwarn":5409,"Ġprecious":5410,"joyed":5411,"Ġkeeper":5412,"Ġdisagreed":5413,"Ro":5414,"Ġpies":5415,"Ġslip":5416,"Ġselling":5417,"Ġpitch":5418,"Ġrested":5419,"Ġpeered":5420,"Ġmeow":5421,"Ġoverjoyed":5422,"Ġcrept":5423,"Ġswims":5424,"aded":5425,"Ġwooden":5426,"Ġmouths":5427,"Ġlips":5428,"Ġtremb":5429,"Ġeasier":5430,"Ġtalent":5431,"Ġbrid":5432,"Ġstrip":5433,"Ġbrick":5434,"Ġserved":5435,"Ġsecrets":5436,"bbled":5437,"seek":5438,"Ġflap":5439,"Ġbrand":5440,"Ġrecognized":5441,"Ġbowed":5442,"Ġrevealed":5443,"ĠSteve":5444,"ĠRuby":5445,"Ġobey":5446,"Ġbye":5447,"Moral":5448,"ĠSunny":5449,"loe":5450,"Ġcompany":5451,"Ġprayed":5452,"ĠRemy":5453,"Ġwanting":5454,"amb":5455,"Ġearthquake":5456,"ffic":5457,"Ġcuddle":5458,"Ġbridges":5459,"Ġwid":5460,"Ġprinter":5461,"Ġreminder":5462,"Ġallow":5463,"Ġexa":5464,"Ġsteel":5465,"Ġweren":5466,"Ġdinosaurs":5467,"Ġguessed":5468,"amie":5469,"Ġeveryday":5470,"Ġsucceeded":5471,"Ġpedal":5472,"Ġsimple":5473,"Ġeffort":5474,"Ġsnowball":5475,"Ġzigzag":5476,"Ġshadows":5477,"Ġbleeding":5478,"Ġacorns":5479,"Ġcomforted":5480,"Ġfireworks":5481,"Ġvillag":5482,"cc":5483,"Ġrang":5484,"Ġtraffic":5485,"Luckily":5486,"ÅĵWe":5487,"Ġvel":5488,"Ġblueberry":5489,"son":5490,"Ġpupil":5491,"Ġtrapped":5492,"Ġapologize":5493,"Ġfirefight":5494,"Susie":5495,"Ġcal":5496,"Ġmineral":5497,"Ġoats":5498,"Ġhist":5499,"Ġpets":5500,"ĠAbigail":5501,"Ġcatching":5502,"Ġrained":5503,"Ġwaffles":5504,"Ġtip":5505,"Ġsix":5506,"Ġanytime":5507,"Ġcircus":5508,"Ġvelvet":5509,"Ġhistory":5510,"Ġcreation":5511,"Ġvict":5512,"Ġstyle":5513,"Ġowned":5514,"Ġmuddy":5515,"iggy":5516,"Ġeagle":5517,"ĠSomething":5518,"Ġcutting":5519,"Ġchef":5520,"Ġmonsters":5521,"Ġaccom":5522,"Ġsettle":5523,"ishes":5524,"Ġwhatever":5525,"Ġgained":5526,"Ġleather":5527,"Ġfreeze":5528,"Ġwaist":5529,"Ġsoared":5530,"Ġvoices":5531,"Ġscoop":5532,"ĠRa":5533,"Ġperched":5534,"Ġbringing":5535,"mare":5536,"ley":5537,"Ġvillagers":5538,"ĠMilly":5539,"terday":5540,"Ġshopping":5541,"Ġdisturbed":5542,"Somet":5543,"nie":5544,"rin":5545,"Ġanswers":5546,"Ġstripes":5547,"ĠSpark":5548,"Ġlandsc":5549,"Ġpracticing":5550,"ĠChr":5551,"mble":5552,"Ġresponsible":5553,"Ġbun":5554,"Ġstruggled":5555,"Or":5556,"Ġaccompl":5557,"Ġpadd":5558,"ĠJe":5559,"Ġnightmare":5560,"Ġtastes":5561,"omas":5562,"Ġvisiting":5563,"Ġtwirling":5564,"Ġripped":5565,"Ġbreaking":5566,"neath":5567,"Ġbeneath":5568,"xygen":5569,"First":5570,"Ġdoctors":5571,"Ġfash":5572,"Ġcuriosity":5573,"Ġdrag":5574,"Ġdownstairs":5575,"Ġeats":5576,"Ġmice":5577,"Ġstealing":5578,"Ġagreement":5579,"Ġbrushed":5580,"ĠChirpy":5581,"Ġexactly":5582,"Ġolives":5583,"ien":5584,"enty":5585,"ĠKatie":5586,"Tweet":5587,"izing":5588,"ira":5589,"Ġoutdo":5590,"Ġarea":5591,"Ġitems":5592,"Ġlandscape":5593,"Ġcontro":5594,"Ġcostumes":5595,"Ġtremble":5596,"Ġladyb":5597,"Ġsadness":5598,"icorn":5599,"Ġunicorn":5600,"Ġargued":5601,"Ġgrandmother":5602,"ĠQu":5603,"Ġrele":5604,"Ġwrites":5605,"ulu":5606,"Ġfamil":5607,"Ġfashion":5608,"Ġkeys":5609,"Ġwreck":5610,"Fluffy":5611,"ÅĵCan":5612,"Ġrealize":5613,"Ġactiv":5614,"ĠThese":5615,"Ġmission":5616,"Ġrecognize":5617,"Ġbegin":5618,"Ġdied":5619,"ĠMat":5620,"Ġsoak":5621,"ĠBeth":5622,"Ġsisters":5623,"Ġdecorated":5624,"Ġexamined":5625,"Ġbare":5626,"Ġruin":5627,"Ġpermit":5628,"anta":5629,"Ġjogged":5630,"ĠBig":5631,"Ġnicer":5632,"Ġsting":5633,"usan":5634,"Ġcaut":5635,"ĠJan":5636,"Ġpancakes":5637,"Ġsneaked":5638,"Ġnails":5639,"Ġshivering":5640,"Ġweighed":5641,"Ġtickets":5642,"Ġencourage":5643,"Ġsiren":5644,"Ġpearl":5645,"ĠOl":5646,"Ġslapped":5647,"Ġstudied":5648,"oming":5649,"Ġwondering":5650,"Ġinstruct":5651,"ib":5652,"Ġwinning":5653,"Un":5654,"Ġpockets":5655,"Ġaccidents":5656,"Ġpinched":5657,"ĠFrank":5658,"Ġpastel":5659,"Ġstretching":5660,"ĠCla":5661,"Ġunlocked":5662,"Rex":5663,"Ġkeeps":5664,"Ġbend":5665,"Ġloaded":5666,"ears":5667,"Ġunderground":5668,"Ġwagging":5669,"Ġrides":5670,"Ġknelt":5671,"isten":5672,"ĠKe":5673,"Ġvictory":5674,"Ġsoaring":5675,"Ġcomple":5676,"Ġlemons":5677,"Ġexit":5678,"ĠLike":5679,"bbing":5680,"ĠFirst":5681,"Ġfiremen":5682,"Ġsitu":5683,"ding":5684,"Ġtugged":5685,"Ġplanned":5686,"Ġzooming":5687,"Ġfascinated":5688,"ÅĵDon":5689,"Ġunderneath":5690,"Ġmachines":5691,"Ġsupplies":5692,"Ġwinner":5693,"ĠHowever":5694,"Ġpiles":5695,"Ġproperly":5696,"Ġago":5697,"Ġshoulders":5698,"Ġpeel":5699,"Ġoxygen":5700,"Ġzero":5701,"Ġdraws":5702,"Ġsatisfied":5703,"Happy":5704,"Ġchallenge":5705,"Ġruler":5706,"Ġemergen":5707,"Ġoutdoors":5708,"indy":5709,"Ġmixing":5710,"Ġstirring":5711,"Ġbunnies":5712,".'":5713,"Bella":5714,"Ġbeha":5715,"Ġgathering":5716,"Ġcontrol":5717,"looking":5718,"Ġinstructions":5719,"ales":5720,"wo":5721,"Sometimes":5722,"gers":5723,"Ġneighbors":5724,"ĠJulie":5725,"ĠDavid":5726,"Ġyelling":5727,"ux":5728,"Ġann":5729,"inda":5730,"ĠUncle":5731,"ĠStop":5732,"len":5733,"Ġneighbourhood":5734,"Dave":5735,"ays":5736,"thank":5737,"Ġbroom":5738,"Ġlines":5739,"Ġloving":5740,"oh":5741,"Ġclaps":5742,"Ġpunished":5743,"Ġtravell":5744,"Ġintroduc":5745,"aky":5746,"ashed":5747,"Ġprinted":5748,"Ġtune":5749,"ĠItÃ¢":5750,"Ġmuscles":5751,"Ġspiders":5752,"Ġteasing":5753,"ĠSuzy":5754,"va":5755,"ĠCoco":5756,"owers":5757,"Ġintroduce":5758,"die":5759,"ĠLucky":5760,"annah":5761,"Ġdam":5762,"Ġfetch":5763,"agull":5764,"Ġincrease":5765,"Ġbrushes":5766,"ury":5767,"Ġdeser":5768,"âĤ¬âĢĿ":5769,"Goodbye":5770,"Ġsolut":5771,"ica":5772,"Ġcompetition":5773,"low":5774,"ĠletÃ¢":5775,"Ġtouching":5776,"Ġburrow":5777,"ÅĵThis":5778,"Ġbuckets":5779,"shing":5780,"Ġsights":5781,"bies":5782,"zen":5783,"Ġbudge":5784,"ik":5785,"Ġcape":5786,"Ġparked":5787,"Ġreleased":5788,"oed":5789,"ayla":5790,"Ġprunes":5791,"Ġloose":5792,"icky":5793,"Ġdecides":5794,"ĠAnne":5795,"Ġstair":5796,"Ġpoking":5797,"Ġguns":5798,"Ġtim":5799,"Ġsnail":5800,"Ġbaked":5801,"Ġdent":5802,"Ġseagull":5803,"Ġbabies":5804,"Ġdrift":5805,"Ġribbons":5806,"Ġconfident":5807,"Ġstitch":5808,"Ġfrosting":5809,"uke":5810,"Ġbeard":5811,"Ġpeaches":5812,"Ġmarks":5813,"Ġmovies":5814,"riage":5815,"ÅĵLook":5816,"Ġsteep":5817,"Henry":5818,"Ġrelease":5819,"ĠDid":5820,"Teddy":5821,"Ġpurred":5822,"Ġstudying":5823,"Mr":5824,"ĠRabbit":5825,"Ġladybug":5826,"Mike":5827,"Ġbunch":5828,"Ġmittens":5829,"Ġeight":5830,"Ġcones":5831,"Ġstruck":5832,"ĠFloppy":5833,"Ġprotected":5834,"Ġtonight":5835,"Ġsoaked":5836,"Ġlied":5837,"Ġtickle":5838,"Ġrepeated":5839,"Ġourselves":5840,"Ġhonk":5841,"Ah":5842,"Cl":5843,"Ġgiggling":5844,"Ġcrowd":5845,"Lola":5846,"Mar":5847,"Ġsides":5848,"Ġscurried":5849,"Ġdemanded":5850,"Ġbarely":5851,"Ġopin":5852,"Ġsweeties":5853,"Ġhorns":5854,"Ġlux":5855,"Ġmentioned":5856,"Ġvowed":5857,"Ġfoods":5858,"Ġfrozen":5859,"Ġsurface":5860,"Ġdragons":5861,"Ġstrings":5862,"George":5863,"imy":5864,"Ġcamping":5865,"Ġmuffins":5866,"Ġsilence":5867,"Ġguys":5868,"nes":5869,"Ġsorting":5870,"ĠSanta":5871,"Ġshock":5872,"Ġpears":5873,"Ġemergency":5874,"Ġdragged":5875,"Ġrubbing":5876,"dam":5877,"ĠAn":5878,"icked":5879,"Ġcrumb":5880,"Ġrainbows":5881,"Ella":5882,"Ġmast":5883,"ĠBir":5884,"Ġforgi":5885,"ĠTiny":5886,"Ġchases":5887,"kins":5888,"Ġ1":5889,"Ġgrant":5890,"Ġstole":5891,"Ġpouring":5892,"jam":5893,"ĠAm":5894,"Joey":5895,"ednes":5896,"Andy":5897,"ednesday":5898,"Ġproject":5899,"Ġentire":5900,"Ġeast":5901,"Ġherbs":5902,"Ġdrives":5903,"Ġexpect":5904,"Ġwound":5905,"Ġbank":5906,"Ġcatches":5907,"Ġpowers":5908,"Ġinch":5909,"Ġkicking":5910,"uctantly":5911,"Ġda":5912,"ĠCarl":5913,"ÅĵHello":5914,"Ġgazed":5915,"bric":5916,"Ġweb":5917,"Ġfabric":5918,"Ġtexture":5919,"ĠPip":5920,"ĠZoom":5921,"Bobby":5922,"Ġsled":5923,"ĠBetty":5924,"Ġvent":5925,"ĠGr":5926,"ason":5927,"Ġurged":5928,"Remember":5929,"ĠWednesday":5930,"avi":5931,"Ġhighest":5932,"Ġmater":5933,"Ġseason":5934,"Ġacted":5935,"Ġsausages":5936,"Ġmateri":5937,"exp":5938,"Ġrocked":5939,"tiest":5940,"Ġbloomed":5941,"Ġdiscovering":5942,"Ġprettiest":5943,"Ġbouncy":5944,"Grandpa":5945,"Ġyouth":5946,"Ġcautious":5947,"Ġprints":5948,"uesday":5949,"Ġgoodnight":5950,"Ġsighs":5951,"Ġcompleted":5952,"zie":5953,"ĠOnce":5954,"Maggie":5955,"Ġchat":5956,"Ġshelves":5957,"Ġwest":5958,"ĠChloe":5959,"Ġchewing":5960,"ĠBubbles":5961,"Ġinterest":5962,"Ġpoliceman":5963,"Ġchips":5964,"Ġstrike":5965,"Ġstamps":5966,"Ġcuts":5967,"Ġapplauded":5968,"Ġcurly":5969,"Ġtwinkling":5970,"ĠLulu":5971,"Ġslimy":5972,"Ġpatience":5973,"eezing":5974,"Ġresult":5975,"expected":5976,"ĠHop":5977,"Ġsorted":5978,"Ġplanets":5979,"ÅĵDonÃ¢":5980,"ÅĵOh":5981,"Pete":5982,"ern":5983,"ĠJosh":5984,"ledge":5985,"hins":5986,"Ġti":5987,"esome":5988,"Ġflat":5989,"Ġbottles":5990,"ĠTuesday":5991,"Ġstaring":5992,"Ġblink":5993,"ĠCar":5994,"Ġcontest":5995,"Ġsinger":5996,"ĠRob":5997,"ĠTilly":5998,"Ġmotion":5999,"Ġreluctantly":6000,"Ġsafer":6001,"ĠSusan":6002,"Ġthreat":6003,"Ġunexpected":6004,"bert":6005,"though":6006,"ÅĵWhy":6007,"Ġscreaming":6008,"Ġmatched":6009,"Ġknowledge":6010,"Ġwaiter":6011,"Ġpretends":6012,"Ġshivered":6013,"uly":6014,"Ġlibrarian":6015,"Ġachieve":6016,"Ġsolution":6017,"Ġpout":6018,"ĠHoppy":6019,"Ġsnugg":6020,"Ġpassing":6021,"Uh":6022,"Ġluxury":6023,"Ġinclude":6024,"Ġcurtains":6025,"usted":6026,"Ġflags":6027,"Ġawesome":6028,"ivery":6029,"Ġroaring":6030,"ĠAlways":6031,"Ye":6032,"Ġhomework":6033,"Fred":6034,"Ġreplac":6035,"Ġsweets":6036,"Ġfigured":6037,"Ġsituation":6038,"ĠSure":6039,"Kitty":6040,"ĠcanÃ¢":6041,"Ġgoals":6042,"Ġhugging":6043,"Ġroads":6044,"Ġdusty":6045,"ids":6046,"Ġshined":6047,"Ġwed":6048,"Ġsticking":6049,"Ġpebbles":6050,"Ġintroduced":6051,"fit":6052,"Ġslap":6053,"Ġcheering":6054,"Ġexha":6055,"Ġsway":6056,"Ġreaching":6057,"Ġdirection":6058,"ĠThomas":6059,"Ġtraveled":6060,"ĠJamie":6061,"Ġtheirs":6062,"Ġimportance":6063,"you":6064,"immer":6065,"Ġuses":6066,"Ġmatching":6067,"Ġblooming":6068,"Ġdolphins":6069,"ĠJones":6070,"Ġrobb":6071,"Ġgrowl":6072,"Ġrecorded":6073,"Ġbravery":6074,"Ġradishes":6075,"jamas":6076,"uzz":6077,"cuse":6078,"Ġwritten":6079,"Ġrescued":6080,"Ġbalancing":6081,"Ġheel":6082,"Ġoutfit":6083,"Yeah":6084,"Ġgreet":6085,"Ġast":6086,"Ġdelivery":6087,"Ġmarriage":6088,"ena":6089,"Ġbaker":6090,"Ġpatted":6091,"Ġexpected":6092,"Ġdisagree":6093,"Fr":6094,"Ġusual":6095,"Leo":6096,"Ġtowels":6097,"bl":6098,"itely":6099,"essie":6100,"ĠJenna":6101,"Ġpacking":6102,"Ġzookeeper":6103,"izzie":6104,"hello":6105,"Ġscra":6106,"Ġlap":6107,"Ġlearns":6108,"Ġrocking":6109,"Excuse":6110,"Ġmarkers":6111,"Ġincluded":6112,"irts":6113,"Ġplenty":6114,"oys":6115,"Ġworker":6116,"Ġguest":6117,"iar":6118,"Ġmane":6119,"Ġfault":6120,"Ġremoved":6121,"Ġobserved":6122,"James":6123,"ĠYes":6124,"ences":6125,"Ġtruly":6126,"Ġrockets":6127,"Ġarrive":6128,"Ġspraying":6129,"Ġarguing":6130,"Ġfart":6131,"Ġleap":6132,"Ġcaused":6133,"Ġagrees":6134,"Ġflavor":6135,"Ġwedding":6136,"Ġcreating":6137,"ĠHa":6138,"Ġworkers":6139,"Mrs":6140,"vin":6141,"Ġexhausted":6142,"ults":6143,"Ġtrembling":6144,"njoy":6145,"Ġpartic":6146,"ĠyouÃ¢":6147,"ĠLou":6148,"Ġusually":6149,"Ġpenguins":6150,"lowly":6151,"lee":6152,"Ġprincesses":6153,"Ġhealed":6154,"Afterwards":6155,"Ġstartled":6156,"Ġprayer":6157,"Danny":6158,"Ġcompletely":6159,"Paul":6160,"ĠBye":6161,"Charlie":6162,"Ġkneeled":6163,"Sophie":6164,"Ġstare":6165,"iles":6166,"Ġvanish":6167,"ora":6168,"Ġbelly":6169,"Ġopening":6170,"Ġsuitc":6171,"Ġwandering":6172,"Grace":6173,"Ġdared":6174,"ctions":6175,"Ġpajamas":6176,"ĠSadly":6177,"Ġgrowling":6178,"Ġresting":6179,"Ġtimer":6180,"Ġfir":6181,"Ġspike":6182,"Ġflames":6183,"Ġpaintings":6184,"However":6185,"Ġchuck":6186,"acob":6187,"Annie":6188,"Ġlamb":6189,"Ġthro":6190,"Ġscales":6191,"asm":6192,"Ġsnakes":6193,"Ġregretted":6194,"Ġquacked":6195,"Ġdentist":6196,"Ġreply":6197,"ĠJessie":6198,"Ġcrumbs":6199,"Ġthroat":6200,"Ġworries":6201,"Ġventured":6202,"mas":6203,"iding":6204,"Ġcloses":6205,"Ġcrackers":6206,"ĠChrist":6207,"Ġstruggle":6208,"Ġheav":6209,"Ġstorekeeper":6210,"ĠClaire":6211,"Ġtwinkle":6212,"Ġrelief":6213,"Ġpencils":6214,"...":6215,"Ġfirm":6216,"Ġwasted":6217,"Ġscru":6218,"Ġreveal":6219,"ĠJeff":6220,"go":6221,"Ġseesaw":6222,"Ġorganizing":6223,"Ġrubs":6224,"Ġwink":6225,"Ġcent":6226,"Ġranger":6227,"Ġfairies":6228,"ĠwasnÃ¢":6229,"Ġmisses":6230,"Ġboo":6231,"Ġroots":6232,"Ġcomm":6233,"Ġpots":6234,"hell":6235,"Ġga":6236,"araway":6237,"angled":6238,"Ġinviting":6239,"Ġreplaced":6240,"Ġstern":6241,"ĠBoth":6242,"ĠMart":6243,"ĠAunt":6244,"ĠFor":6245,"Ġremote":6246,"Ġcrabs":6247,"Ġpoems":6248,"Ġunited":6249,"vers":6250,"Ġeverybody":6251,"Ġfaraway":6252,"une":6253,"Ġrolls":6254,"Ġdesert":6255,"per":6256,"Ġowners":6257,"Ġtractor":6258,"Ġcountryside":6259,"Ġrisk":6260,"Ġboom":6261,"Ġpolishing":6262,"ĠLeave":6263,"Ġparticular":6264,"Ġknights":6265,"ĠChristmas":6266,"Ġcott":6267,"ilo":6268,"Ġvalued":6269,"Ġmelting":6270,"Ġaccomplish":6271,"dies":6272,"Ġbead":6273,"Ġpolished":6274,"Ġpaddled":6275,"Ġyounger":6276,"Ġnaps":6277,"pite":6278,"aty":6279,"opes":6280,"Ġdirections":6281,"Mittens":6282,"Ġleader":6283,"aa":6284,"Ġpastries":6285,"Ġteaches":6286,"ĠOut":6287,"Ġwires":6288,"Ġsingle":6289,"Ġpeeking":6290,"Ġwinked":6291,"Ġcracked":6292,"ĠFollow":6293,"Ġactivities":6294,"Ġitchy":6295,"Ġbalanced":6296,"ĠBy":6297,"Ġdarkness":6298,"igi":6299,"Ġunf":6300,"boat":6301,"ĠBeing":6302,"Ġgaze":6303,"ĠPipp":6304,"Ġwrist":6305,"ophia":6306,"Ġhelmets":6307,"isies":6308,"Ġlogs":6309,"Bad":6310,"Ġfreed":6311,"ĠDolly":6312,"Ġseems":6313,"Ġswirl":6314,"Ġsneaky":6315,"Ġinterested":6316,"Fine":6317,"ĠMad":6318,"Ġhowever":6319,"oline":6320,"Ġphotos":6321,"Ġbecoming":6322,"Ġcause":6323,"Ġtrips":6324,"ĠUnfortunately":6325,"Millie":6326,"ĠMomo":6327,"Ġsigned":6328,"Ġdaisies":6329,"Ġrecording":6330,"Ġstem":6331,"Ġforehead":6332,"Ġcoloured":6333,"rance":6334,"ĠPut":6335,"Ġyesterday":6336,"Ġfuzzy":6337,"Ġfaced":6338,"Ġlollipops":6339,"Ġcough":6340,"ĠĊĠ":6341,"Ġwiggled":6342,"Ġsnowballs":6343,"ĠY":6344,"Ġcash":6345,"Ġdipped":6346,"Ġsquealed":6347,"Ellie":6348,"Ġchuckled":6349,"Ġrestored":6350,"ĠJohnson":6351,"Ġgroceries":6352,"ĠMatt":6353,"Ġrefle":6354,"Ġpastels":6355,"Ëľ":6356,"âĤ¬Ëľ":6357,"Ġslam":6358,"Rose":6359,"Ġsplashes":6360,"Ab":6361,"Ġwow":6362,"Ġdetermination":6363,"Ġrings":6364,"Ġnect":6365,"Ġcautiously":6366,"Ġnectar":6367,"ĠSorry":6368,"Ġswooped":6369,"Ġfirefighters":6370,"Ġhi":6371,"Ġden":6372,"ĠLinda":6373,"Ġlined":6374,"Ġstaying":6375,"Ġfilling":6376,"Alex":6377,"ĠAbby":6378,"Ġbowls":6379,"Ġmarked":6380,"Ġcopy":6381,"Ġpiggy":6382,"ĠJu":6383,"Ġbumpy":6384,"Ġcous":6385,"Ġhissed":6386,"bbly":6387,"Ġsnat":6388,"Ġblows":6389,"ÅĵMommy":6390,"Ġsilent":6391,"ords":6392,"ĠMany":6393,"Ġtwin":6394,"Ġmasks":6395,"Ġsandcastles":6396,"Ġfluttered":6397,"Ġopinion":6398,"Ġtipt":6399,"Sandy":6400,"ĠBird":6401,"ĠLuke":6402,"Ġtricked":6403,"Ġbakery":6404,"Ġaff":6405,"Ġripe":6406,"Ġhandful":6407,"Ġprovided":6408,"Ġactions":6409,"Unfortunately":6410,"cited":6411,"Ġsobbed":6412,"Ġnoon":6413,"May":6414,"Ġsense":6415,"Harry":6416,"Ġcans":6417,"Ġtricky":6418,"Ġlung":6419,"Ġroses":6420,"Ġstays":6421,"Ġadding":6422,"Ġtallest":6423,"rrrr":6424,"ĠKeep":6425,"Ġkites":6426,"Ġconn":6427,"Toby":6428,"Ġtickled":6429,"Ġwears":6430,"ĠWatch":6431,"ĠEnjoy":6432,"Ġdeal":6433,"Ġseven":6434,"Ġsomebody":6435,"Ġhealth":6436,"ppers":6437,"Ġlistens":6438,"Ġseeker":6439,"Ġbeads":6440,"Ġbacked":6441,"Ġdarker":6442,"Ġprotecting":6443,"Ġstroll":6444,"arter":6445,"ility":6446,"ĠOw":6447,"Ġpleasure":6448,"Ġsuitcase":6449,"Ġbumps":6450,"ĠBuzzy":6451,"Ġdelivered":6452,"boo":6453,"yond":6454,"Ġbeyond":6455,"ĠQuack":6456,"Kate":6457,"ĠPinky":6458,"Ġcelebration":6459,"Some":6460,"Ġty":6461,"ĠBo":6462,"Ġfroze":6463,"Ġlighter":6464,"Ġbars":6465,"ĠTara":6466,"Ġentrance":6467,"Ġcovers":6468,"Run":6469,"Ġthorn":6470,"Ġmiles":6471,"Ġawake":6472,"ĠMo":6473,"Ġsecure":6474,"Ġattack":6475,"ÅĵWhatÃ¢":6476,"Ġfarther":6477,"Ġinsects":6478,"rincess":6479,"Sad":6480,"ĠDoggy":6481,"Ġhider":6482,"Ġscarves":6483,"Ġcubes":6484,"ĠPandy":6485,"hee":6486,"Ġbadge":6487,"ĠFox":6488,"Ġcashier":6489,"Bl":6490,"Ġliqu":6491,"Ġsmarter":6492,"Ġyourselves":6493,"ĠFriend":6494,"Ġcowb":6495,"Ġpedals":6496,"Ġstolen":6497,"Ġmagnets":6498,"ĠSuzie":6499,"Ġglee":6500,"Ġkicks":6501,"ĠNothing":6502,"Ġcalmed":6503,"umm":6504,"Ġexplorers":6505,"Ġafterwards":6506,"ormed":6507,"Ġjoking":6508,"coat":6509,"Ġcolored":6510,"affes":6511,"?'":6512,"Ġspeaking":6513,"Ġinsp":6514,"Ġknees":6515,"aura":6516,"ĠKayla":6517,"Ġsalty":6518,"Ġknocks":6519,"ths":6520,"Ġgiraffes":6521,"Ġbeginning":6522,"Those":6523,"anes":6524,"Ġseashell":6525,"Bun":6526,"Ġcust":6527,"Ġinstrum":6528,"Nina":6529,"Ġmes":6530,"Ġbehavi":6531,"Ġsteer":6532,"Ġparties":6533,"Ġachieved":6534,"Ġglasses":6535,"Ġrecommended":6536,"Ġmesmer":6537,"ĠJessica":6538,"rious":6539,"ĠLizzy":6540,"sequ":6541,"Ġreads":6542,"Ġwipes":6543,"Ġtalented":6544,"ners":6545,"Ġopp":6546,"?\",":6547,"Ġraincoat":6548,"Ġbuying":6549,"Ġcandies":6550,"Ġcomplaining":6551,"Ġcustom":6552,"Ġrule":6553,"rig":6554,"tle":6555,"Ġmi":6556,"ĠTwo":6557,"Ġteased":6558,"Ġconsequ":6559,"no":6560,"ĠAdam":6561,"brush":6562,"Ġchoo":6563,"ĠGet":6564,"Ġmixture":6565,"ana":6566,"Ġmarker":6567,"Ġindeed":6568,"ĠTess":6569,"ĠEverybody":6570,"Ġcomplained":6571,"ĠMon":6572,"ĠLuckily":6573,"Ġimproved":6574,"Ġclick":6575,"Ġsailboat":6576,"Ġfolding":6577,"ĠHappy":6578,"Ġliquid":6579,"Ġpause":6580,"ĠWater":6581,"Ġtangled":6582,"itches":6583,"ossible":6584,"arling":6585,"Ġacting":6586,"Days":6587,"band":6588,"iled":6589,"ĠSlowly":6590,"ĠEarth":6591,"Ġimpossible":6592,"Ġsmiley":6593,"umbling":6594,"choo":6595,"ÅĵDo":6596,"Ġcheeks":6597,"Ġweeping":6598,"Ġsnatched":6599,"aren":6600,"ĠMick":6601,"Ġscaring":6602,"Ġwins":6603,"ĠSqu":6604,"urry":6605,"Ġtasks":6606,"Ġstroked":6607,"Ġrusty":6608,"Ġpouted":6609,"atul":6610,"Ġwee":6611,"ĠGigi":6612,"Ġvideos":6613,"Ġpaddle":6614,"Ġchefs":6615,"itched":6616,"Ġcreamy":6617,"Ġchoices":6618,"ivity":6619,"Ġfamilies":6620,"ept":6621,"Ġhesitated":6622,"indr":6623,"ĠPl":6624,"Ġswimsuit":6625,"Ġconsequences":6626,"ĠLizzie":6627,"Ġbedtime":6628,"Ġexperien":6629,"tuce":6630,"Ġthird":6631,"step":6632,"Ġshirts":6633,"ĠMa":6634,"Ġraindr":6635,"Ġlettuce":6636,"ĠPrincess":6637,"ĠJon":6638,"Ġclowns":6639,"Ġburst":6640,"Ġrumble":6641,"ĠChe":6642,"ĠCindy":6643,"ĠJulia":6644,"Ġscrubbed":6645,"ĠHannah":6646,"igers":6647,"ĠJazz":6648,"Ġcreativity":6649,"Ġdrums":6650,"Ġbehaved":6651,"iki":6652,"Ġdots":6653,"Ġswept":6654,"Ġstung":6655,"Ġneedles":6656,"Ġsnuck":6657,"Que":6658,"bell":6659,"ĠMira":6660,"Ġflapping":6661,"Ġcelebrating":6662,"Ġleading":6663,"Ġaccomplishment":6664,"Ġhearing":6665,"ĠNina":6666,"abel":6667,"Ġwidened":6668,"ouch":6669,"Ġlower":6670,"Bobo":6671,"Ġgems":6672,"Shh":6673,"Queen":6674,"vest":6675,"Ġtravelled":6676,"Time":6677,"alph":6678,"ĠwouldnÃ¢":6679,"Ġpeacefully":6680,"Ġjackets":6681,"oey":6682,"Ġneither":6683,"Ġpointy":6684,"Ġpaying":6685,"rigued":6686,"Ġyells":6687,"ĠMel":6688,"Ġcupcakes":6689,"Ġdiving":6690,"Ġarrows":6691,"ans":6692,"Ġwrapping":6693,"Great":6694,"Ġsnowmen":6695,"Ġpuppies":6696,"Ġfluttering":6697,"ĠOlive":6698,"Polly":6699,"Ġruining":6700,"cope":6701,"atur":6702,"ĠSophia":6703,"Ġwilling":6704,"Ġgrabbing":6705,"Ġdef":6706,"Ġbasement":6707,"ĠRobby":6708,"Ġpassen":6709,"Ġcor":6710,"Ġbackwards":6711,"Ġtemper":6712,"cers":6713,"Ġmaterials":6714,"ĠEl":6715,"ÅĵWow":6716,"anging":6717,"Ġobjects":6718,"Ġscrews":6719,"Ġstomped":6720,"Ġastron":6721,"ded":6722,"eal":6723,"pare":6724,"Ġsource":6725,"Ġmushrooms":6726,"Ġhallway":6727,"Ġsibl":6728,"ĠGoodbye":6729,"Ġdrifted":6730,"Ġraindrops":6731,"Ġsiblings":6732,"Tina":6733,"ky":6734,"Ġtigers":6735,"ĠSque":6736,"Ġbeam":6737,"Ġbatteries":6738,"ĠMikey":6739,"ĠĠĊ":6740,"Ġdeserve":6741,"Ġscratches":6742,"Ġseconds":6743,"Roar":6744,"cl":6745,"ÅĵHi":6746,"endy":6747,"Ġhoriz":6748,"Ġannoy":6749,"Ġech":6750,"Ġrip":6751,"Ġplayers":6752,"elia":6753,"ishy":6754,"ĠwonÃ¢":6755,"Ġgracefully":6756,"Ġtiptoed":6757,"Ġastronaut":6758,"Ġhorizon":6759,"yan":6760,"Milly":6761,"Ġfever":6762,"Ġdollhouse":6763,"Ġrivers":6764,"Ġcuddly":6765,"Ġavoid":6766,"ÅĵYouÃ¢":6767,"Ġlosing":6768,"Ġaren":6769,"Ġhides":6770,"immering":6771,"Ġwadd":6772,"Ġchop":6773,"ÅĵCome":6774,"Ġsquares":6775,"Ġlun":6776,"Ġfears":6777,"Ġmagician":6778,"ĠWithout":6779,"Ġpans":6780,"ĠBluey":6781,"Lilly":6782,"Ġsprinkled":6783,"ĠQueen":6784,"ongr":6785,"Ġgrowls":6786,"Pat":6787,"Ġgross":6788,"ĠJacob":6789,"Ġperformance":6790,"Ġartist":6791,"Ġhus":6792,"ĠBinky":6793,"Ġrepa":6794,"kend":6795,"Ġgrassy":6796,"ongratul":6797,"Ġornaments":6798,"Wh":6799,"ne":6800,"Ġtramp":6801,"Ġweekend":6802,"mallow":6803,"arshmallow":6804,"Ġtempt":6805,"Ru":6806,"Ġbeloved":6807,"Meow":6808,"Ġgrandpare":6809,"Ġlimes":6810,"ĠDr":6811,"Ġneighbours":6812,"Have":6813,"Ġsale":6814,"ntil":6815,"itted":6816,"Ġchip":6817,"Ġafford":6818,"dri":6819,"oor":6820,"Ġforgiven":6821,"Ġrepaired":6822,"Dan":6823,"Ġmer":6824,"igning":6825,"Ġunpacked":6826,"Ġstudents":6827,"Ġminerals":6828,"ĠSparky":6829,"Ġwraps":6830,"Ġdamage":6831,"Ġaud":6832,"Ġrising":6833,"Ġfact":6834,"Ġwindy":6835,"Ġdreamt":6836,"ounce":6837,"Ġtrampoline":6838,"For":6839,"Ġsparks":6840,"Ġforgets":6841,"ĠLarry":6842,"Ġadult":6843,"Ġconcer":6844,"Ġache":6845,"Ġtemperature":6846,"Ġsnowfl":6847,"Ġstain":6848,"Ġstool":6849,"ĠAbbie":6850,"Ġnoses":6851,"Ġamong":6852,"Ġhusband":6853,"Ġdarling":6854,"ĠMilo":6855,"ĠEls":6856,"Tr":6857,"sty":6858,"iece":6859,"Ġprinting":6860,"Ġrefu":6861,"Ġpromises":6862,"ades":6863,"Ġslammed":6864,"Pe":6865,"Ġdads":6866,"aker":6867,"ĠRemember":6868,"Ġrecipe":6869,"Ġdecorating":6870,"Ġwishing":6871,"Ġseparated":6872,"Ġwoof":6873,"Ġheading":6874,"Ġsailors":6875,"Ġzebras":6876,"Ġmarshmallow":6877,"Ġslices":6878,"Ġhesitant":6879,"An":6880,"Ġenthusi":6881,"Ew":6882,"Ġtreehouse":6883,"Ġtunnels":6884,"Ġrewarded":6885,"Ġtriangles":6886,"llen":6887,"Ġzipping":6888,"Ġsunflowers":6889,"Ġenthusiasm":6890,"Woof":6891,"yes":6892,"Ġreass":6893,"Ġbodies":6894,"Ġrustling":6895,"Ġsnuggle":6896,"Ġcousin":6897,"Ġprett":6898,"Ġgasp":6899,"Ġswans":6900,"ĠSnugg":6901,"Ġneatly":6902,"Ġwarnings":6903,"Baby":6904,"Ġtouc":6905,"ments":6906,"ĠMickey":6907,"Ġhitting":6908,"Ġgri":6909,"Ġmeals":6910,"ĠAsh":6911,"Ġleaning":6912,"Ġdiscussed":6913,"Ġincluding":6914,"Ġcenter":6915,"Ġtapped":6916,"Ġsurroundings":6917,"Ġonions":6918,"Ġtails":6919,"Ġfeeding":6920,"Maria":6921,"ĠMartha":6922,"Ġge":6923,"ĠSun":6924,"ushing":6925,"Ġwrink":6926,"Ġplans":6927,"Ġpresses":6928,"Ġreflection":6929,"Ġaudience":6930,"Boo":6931,"Whee":6932,"Ġdollars":6933,"ĠFinn":6934,"urious":6935,"Ġcoup":6936,"Ġdances":6937,"Ġborrowed":6938,"ĠPr":6939,"Ġuns":6940,"ĠTodd":6941,"Fin":6942,"Oops":6943,"oni":6944,"Ġintrigued":6945,"Ġprettier":6946,"ition":6947,"imon":6948,"Ġpecked":6949,"Ġcounts":6950,"Ġwiping":6951,"Ġforks":6952,"itude":6953,"Ġhandsome":6954,"ĠZip":6955,"ĠRover":6956,"Ġearn":6957,"Ġgranted":6958,"Ġrobber":6959,"Ġthrown":6960,"ĠRock":6961,"Ġcreations":6962,"Ġimagining":6963,"Ġpraying":6964,"wk":6965,"Ġage":6966,"Ġblocking":6967,"hog":6968,"ably":6969,"--":6970,"eds":6971,"Ġbows":6972,"Ġstreets":6973,"ĠSnuggles":6974,"Ġreason":6975,"ael":6976,"Ġplanning":6977,"Ġshrinking":6978,"Ġheavier":6979,"unched":6980,"Ġspikes":6981,"Ġhelpers":6982,"opsy":6983,"Ġslower":6984,"Clara":6985,"Ġdod":6986,"Ġdesigned":6987,"Ġtouches":6988,"Ġrequested":6989,"Ġcouple":6990,"ĠJay":6991,"Ġsuperheroes":6992,"Miss":6993,"uzzy":6994,"Ġgobbled":6995,"fus":6996,"ichael":6997,"Ġdelivering":6998,"Ġhour":6999,"Ġwag":7000,"Ġchos":7001,"Ġembarrass":7002,"Ġchosen":7003,"fall":7004,"ĠHoot":7005,"ĠLaura":7006,"ÅĵMy":7007,"Ġspreading":7008,"Ducky":7009,"ĠEmmy":7010,"Ġbuzzed":7011,"Ġ10":7012,"Jul":7013,"armer":7014,"Ġpeppers":7015,"Ġtwice":7016,"Katie":7017,"Ġdet":7018,"Ġgardener":7019,"Ġpolar":7020,"Ġstarfish":7021,"ĠZoey":7022,"By":7023,"Bill":7024,"Our":7025,"the":7026,"vil":7027,"Ġmerry":7028,"Ġnine":7029,"Ġarr":7030,"Ġcoloring":7031,"Ġbaths":7032,"using":7033,"Ġdived":7034,"Ġscrewdri":7035,"Fo":7036,"Ġheroes":7037,"Ġnibb":7038,"Ġscamp":7039,"Ġfeast":7040,"Ġcond":7041,"ĠFire":7042,"Ġwobbled":7043,"Ġcorners":7044,"ĠFrog":7045,"Ġgeese":7046,"Surpr":7047,"Ġhawk":7048,"ĠThanks":7049,"ĠRobert":7050,"ccoon":7051,"Ġgreeted":7052,"Yummy":7053,"jo":7054,"Ġraccoon":7055,"Ġremembering":7056,"Ġmuscle":7057,"Ġseaw":7058,"Ġshops":7059,"Ġfamiliar":7060,"rey":7061,"Ġspong":7062,"Ġhedgehog":7063,"Ġpuppet":7064,"Ġposs":7065,"Ġpuff":7066,"Ġpotion":7067,"ippy":7068,"arrow":7069,"Ġchanging":7070,"Ġhops":7071,"Ġhopeful":7072,"Blue":7073,"ĠBee":7074,"ently":7075,"Ġtested":7076,"Ġbreathed":7077,"Ġcorre":7078,"Ġplucked":7079,"Ġflas":7080,"ounced":7081,"ĠAbi":7082,"cky":7083,"Ġforgetting":7084,"Ġvanilla":7085,"ĠNobody":7086,"Ġgrandparents":7087,"Ġplain":7088,"ĠPam":7089,"Ġshaped":7090,"ertain":7091,"ĠUntil":7092,"Ġscrewdriver":7093,"Ġaside":7094,"Ġposter":7095,"ĠOwl":7096,"Ġsniffs":7097,"ĠMaya":7098,"fly":7099,"Ġcuriously":7100,"Ġfirefighter":7101,"ĠFriends":7102,"Ġseaweed":7103,"Ġstands":7104,"Ġblast":7105,"otten":7106,"Ġsqueak":7107,"ados":7108,"Ġleast":7109,"ĠBirthday":7110,"Ġscraped":7111,"Ġsofter":7112,"Ġsneezing":7113,"Ġcraft":7114,"Ġnapkins":7115,"Ġdrivers":7116,"Ġmatters":7117,"Ġdie":7118,"Ġcoc":7119,"Ġpops":7120,"Ġtiss":7121,"Ġnur":7122,"ĠLena":7123,"ĠThose":7124,"Ġlifts":7125,"Ġspoonful":7126,"Ġhonked":7127,"Ġthud":7128,"Ġpens":7129,"Ġbully":7130,"Ġrespected":7131,"ĠSadie":7132,"Nemo":7133,"Ġwiggle":7134,"Ġmesmerized":7135,"cused":7136,"Ġmunch":7137,"ĠListen":7138,"Ġfocused":7139,"Ġjoyful":7140,"Ġrotten":7141,"ÅĵMom":7142,"Ġcrashing":7143,"Ġnecklaces":7144,"Ġlungs":7145,"Ġtodd":7146,"Ġdaring":7147,"ĠEx":7148,"ĠRyan":7149,"Ġtalks":7150,"ino":7151,"stick":7152,"Ġglued":7153,"Ġwarmer":7154,"Ġexpress":7155,"Ġbells":7156,"Ġsponge":7157,"Ġgest":7158,"ĠJacky":7159,"Ġflavors":7160,"Ġpins":7161,"ĠSc":7162,"Ġworn":7163,"arac":7164,"ĠCra":7165,"Ġcrew":7166,"Ġthroughout":7167,"Ġropes":7168,"Ġalien":7169,"attered":7170,"ĠStella":7171,"Ġmarshmallows":7172,"ĠTake":7173,"child":7174,"Ġskunk":7175,"Ġsending":7176,"Quick":7177,"Ġdefe":7178,"Ġdropping":7179,"Ġsewing":7180,"Ġsports":7181,"Jerry":7182,"ĠStar":7183,"Ġleads":7184,"bird":7185,"iment":7186,"Ġrout":7187,"Ġneare":7188,"iley":7189,"Ġpennies":7190,"Br":7191,"Ġflight":7192,"Ġslips":7193,"ĠNick":7194,"Ġwhispers":7195,"Ġguests":7196,"irrel":7197,"Ġswords":7198,"aster":7199,"Ġdancers":7200,"Ġjoining":7201,"Ġavocados":7202,"ĠGranny":7203,"Ġmoo":7204,"Ġsan":7205,"Ġonward":7206,"ugs":7207,"Ġgrandchild":7208,"Ġstacked":7209,"Ġwept":7210,"ters":7211,"iona":7212,"Ġexplo":7213,"Ġdrawn":7214,"Ġwrigg":7215,"ĠMeg":7216,"Ġnood":7217,"Ġrushing":7218,"Ġroars":7219,"Ġwobbly":7220,"Ġdresser":7221,"Ġtoaster":7222,"Sadly":7223,"meal":7224,"years":7225,"Ġyielded":7226,"ĠFrosty":7227,"Ġleapt":7228,"Ġtossed":7229,"ĠJune":7230,"Ġpanicked":7231,"Tweety":7232,"Ġfreedom":7233,"ĠthatÃ¢":7234,"allowed":7235,"Ġswallowed":7236,"Ġmints":7237,"Ġrespond":7238,"ĠStay":7239,"Ġpreparing":7240,"Ġincreased":7241,"Ġdip":7242,"Ġprove":7243,"ĠOnly":7244,"Ġresisted":7245,"upt":7246,"ĠAng":7247,"Ġpeck":7248,"ÅĵWell":7249,"ĠRobbie":7250,"Ġwakes":7251,"Ġpours":7252,"ĠOur":7253,"Ġoatmeal":7254,"Ġquarreling":7255,"Ġsuffering":7256,"Ġsank":7257,"Bet":7258,"Ġocc":7259,"Ġspins":7260,"ĠWendy":7261,"Ġgrows":7262,"Ġrefreshing":7263,"Ġproper":7264,"Very":7265,"ĠHoney":7266,"ĠLove":7267,"Ġcharac":7268,"Ġtissue":7269,"ido":7270,"Ġevil":7271,"Ġscen":7272,"plash":7273,"Ġbiting":7274,"Ġdrawers":7275,"Kim":7276,"Ġoh":7277,"Ġtables":7278,"Ġtwisty":7279,"Ġwatering":7280,"Ġlifting":7281,"ĠJanie":7282,"vant":7283,"Ġspat":7284,"Ġblinking":7285,"Ġdoorway":7286,"Ġstrongest":7287,"Ġpostman":7288,"Ġwaddled":7289,"Like":7290,"Su":7291,"ĠWally":7292,"Ġcosy":7293,"retty":7294,"Ġtrot":7295,"Ġhumans":7296,"Ġtrembled":7297,"bage":7298,"eel":7299,"Ġsquishy":7300,"Ġamount":7301,"Ġgarbage":7302,"Ġscampered":7303,"Ġaimed":7304,"onna":7305,"Ġspices":7306,"ĠThatÃ¢":7307,"Ġencourag":7308,"please":7309,"while":7310,"bba":7311,"Ġoysters":7312,"roken":7313,"ĠFarmer":7314,"Ġduckling":7315,"Ġperformed":7316,"...\"":7317,"ĠSqueaky":7318,"Back":7319,"Ġsy":7320,"Ġfaded":7321,"Ġmonths":7322,"Ġsteady":7323,"Ġlessons":7324,"Ġdesigns":7325,"Watch":7326,"ĊĊ":7327,"Ġclues":7328,"ÅĵNow":7329,"Ġfits":7330,"Ġnervously":7331,"Frank":7332,"Ruby":7333,"Ġsadd":7334,"Ġangels":7335,"dress":7336,"Ġpound":7337,"ĠBessie":7338,"ection":7339,"ĠKiki":7340,"Ġmate":7341,"Ġplayroom":7342,"Ġbehaving":7343,"Mine":7344,"but":7345,"lets":7346,"Ġconfl":7347,"Ġcolder":7348,"Ġappreciation":7349,"Ġunsure":7350,"During":7351,"ĠTuna":7352,"Ġplaytime":7353,"Ġscient":7354,"ĠLi":7355,"Ġbravest":7356,"Ġcausing":7357,"ĠZara":7358,"Ġsharks":7359,"Ġpigeons":7360,"Ġmaster":7361,"Ġpassengers":7362,"Ġscientist":7363,"int":7364,"Ġgears":7365,"Ġnapping":7366,"Ġshady":7367,"Ġmanag":7368,"ssss":7369,"ĠFlopsy":7370,"Ġloading":7371,"Ġsurrendered":7372,"Ġgonna":7373,"Ġinj":7374,"bbling":7375,"Ġpolitely":7376,"Ġbreathing":7377,"Ġreversed":7378,"Ġtwinkled":7379,"mates":7380,"Ġthoughts":7381,"Ġhealing":7382,"rrr":7383,"Ġfirmly":7384,"Ġwarri":7385,"Ġelf":7386,"ÅĵIf":7387,"Ġechoed":7388,"lves":7389,"Ġnotes":7390,"Ġslither":7391,"Ġrainy":7392,"Ġdefin":7393,"cake":7394,"Ġcongratul":7395,"Ġkittens":7396,"Ġgrandd":7397,"ody":7398,"Ġ2":7399,"Ġreun":7400,"antha":7401,"Ġfleas":7402,"ĠJudy":7403,"Ġguide":7404,"Ġpackages":7405,"Ġseller":7406,"Ġthorns":7407,"Ġprob":7408,"ĠGreen":7409,"Ġbits":7410,"Ġsqueezing":7411,"eezes":7412,"ĠSquirrel":7413,"Ġprobably":7414,"fire":7415,"aying":7416,"ppies":7417,"Ġoffic":7418,"ÅĵWhere":7419,"Ġhairdress":7420,"Ġresults":7421,"broken":7422,"Ġties":7423,"Ġnuzz":7424,"Tony":7425,"anwhile":7426,"Ġund":7427,"rying":7428,"ĠWell":7429,"Ġconvers":7430,"ĠAlong":7431,"Ġnoodles":7432,"Mad":7433,"Ġcoug":7434,"ddie":7435,"Ġovercome":7436,"Ġbattle":7437,"Ġpumpkins":7438,"Ġsnowflakes":7439,"hew":7440,"Ġnearly":7441,"Ġgiggles":7442,"Ġfrowning":7443,"Ġcushions":7444,"Ġencouraging":7445,"Ġfant":7446,"ening":7447,"ĠMouse":7448,"Ġpaths":7449,"Ġdefinitely":7450,"Ġtil":7451,"Ġcoral":7452,"Ġni":7453,"espite":7454,"Ġscored":7455,"Ġtablet":7456,"Ġlaying":7457,"alloween":7458,"Follow":7459,"Ġhairdresser":7460,"Ġshown":7461,"ÅĵBut":7462,"Ġdistract":7463,"Ġmerma":7464,"Ġgesture":7465,"cher":7466,"Ġunw":7467,"Ġrains":7468,"Ġsails":7469,"Ġcloudy":7470,"Ġstreamers":7471,"Ġwider":7472,"?!\"":7473,"ĠHalloween":7474,"ĠBaa":7475,"Ġkings":7476,"Ġfrowns":7477,"Listen":7478,"onies":7479,"Ġadults":7480,"ÅĵOkay":7481,"asty":7482,"Ġreminding":7483,"Beep":7484,"Ġshovels":7485,"Ġbehavior":7486,"Ġcertain":7487,"Ġfinishing":7488,"Ġblocked":7489,"Ġforgiving":7490,"Even":7491,"Ġtipped":7492,"Ġsnort":7493,"Ġtravels":7494,"Ġtuck":7495,"Ġsoaking":7496,"Ġbru":7497,"Ġwaterfall":7498,"Ġtighter":7499,"Ġpassports":7500,"Ġtricycle":7501,"Ġbandages":7502,"Ġperforming":7503,"Ġais":7504,"Ġflown":7505,"ĠGina":7506,"Ġbelieving":7507,"Ġrobots":7508,"Ġaccomplished":7509,"ĠLouise":7510,"Ted":7511,"oke":7512,"Ġsou":7513,"Ġease":7514,"Ġsweetest":7515,"Ġdamaged":7516,"now":7517,"Ġknots":7518,"Ġquieter":7519,"Ġpaintbrush":7520,"Ġcrossing":7521,"Ġfantastic":7522,"Ġjars":7523,"Ġaction":7524,"Ġpuzzled":7525,"ĠUp":7526,"Ġinstruments":7527,"abby":7528,"ĠEva":7529,"Ġpoppies":7530,"Ġpays":7531,"ĠUnder":7532,"Ġappreciated":7533,"Take":7534,"Ġsmallest":7535,"ĠRay":7536,"Ġworrying":7537,"Ġheartbroken":7538,"Ġignoring":7539,"Ġedges":7540,"Ġsuggestion":7541,"manda":7542,"Ġconnected":7543,"anie":7544,"Ġanger":7545,"Ġpeas":7546,"Ġslipping":7547,"Ġsurv":7548,"Ġships":7549,"Ġcottage":7550,"Surprise":7551,"da":7552,"Ġponies":7553,"ider":7554,"âĤ¬,":7555,"Ġchanges":7556,"Ġsuits":7557,"Ġtoddler":7558,"Ġrather":7559,"Ġbuses":7560,"Ġchopped":7561,"Ġpunishment":7562,"Ġbrushing":7563,"Ġcommun":7564,"Mira":7565,"ÅĵPlease":7566,"Ġfills":7567,"Ġcobwebs":7568,"ĠTw":7569,"ÅĵOf":7570,"Ġexplorer":7571,"ĠRalph":7572,"Ġtwisting":7573,"Ġsniffing":7574,"Ġtravelling":7575,"ca":7576,"Ġhanding":7577,"undred":7578,"Ġloops":7579,"Ġpedaled":7580,"Ġlending":7581,"Ġsymbols":7582,"Ġfirefly":7583,"ĠChris":7584,"Ġrisks":7585,"ĠPippin":7586,"Ġoccas":7587,"eedy":7588,"ĠAlthough":7589,"Ġrepeating":7590,"ĠAmelia":7591,"cent":7592,"found":7593,"ibbit":7594,"Ġheight":7595,"Ġsever":7596,"ĠFido":7597,"Whenever":7598,"Ġfinal":7599,"Ġcleaner":7600,"ĠAli":7601,"Ġlicking":7602,"Excited":7603,"Ġcowboy":7604,"Ġbless":7605,"Ġstitches":7606,"lph":7607,"Ġcuddles":7608,"Ġconflict":7609,"Ġseveral":7610,"Ġtoward":7611,"Ġbelts":7612,"Ġwhistles":7613,"ĠQuick":7614,"ĠAshley":7615,"vroom":7616,"ĠSimon":7617,"ĠIm":7618,"Ġwisely":7619,"Ġmagnif":7620,"Ġsurfing":7621,"Abigail":7622,"Ġyum":7623,"ĠBecause":7624,"Ġcomforting":7625,"Ġhumming":7626,"Ġluckily":7627,"steps":7628,"Ġreassured":7629,"Ġgranddaughter":7630,"Ġdarl":7631,"Ġyel":7632,"Ġreapp":7633,"Ġvines":7634,"issa":7635,"Steve":7636,"Ġpurr":7637,"ĠFroggy":7638,"perate":7639,"Ġcotton":7640,"Ġdarlings":7641,"onnie":7642,"Ġflipped":7643,"Ġaddress":7644,"Ġsweat":7645,"Ġresponsib":7646,"Ġcorrectly":7647,"Ġyelped":7648,"Jamie":7649,"ighting":7650,"Ġefforts":7651,"ĠBirdy":7652,"Vroom":7653,"whe":7654,"isc":7655,"isions":7656,"Ġdisturbing":7657,"Ġspits":7658,"ooky":7659,"Ġstopping":7660,"athy":7661,"Ġdrown":7662,"Ġdriveway":7663,"flies":7664,"Ġfishes":7665,"Get":7666,"ĠX":7667,"Ġtying":7668,"Ġnasty":7669,"ppa":7670,"Ġwithin":7671,"Ġwhose":7672,"ĠJackie":7673,"Ġafar":7674,"Ġfootsteps":7675,"Ġbracelets":7676,"iel":7677,"Ġwobble":7678,"Ġsill":7679,"Ġweeds":7680,"ĠMichael":7681,"ĠLia":7682,"iza":7683,"Ġunderstands":7684,"Ġcollap":7685,"Ġsweep":7686,"Ġencount":7687,"Ġsuffered":7688,"Ġseashells":7689,"Mimi":7690,"ĠTry":7691,"onse":7692,"Ġcheers":7693,"Ġbraver":7694,"Ġconqu":7695,"Ġsmelling":7696,"Ġelbow":7697,"Ġresponse":7698,"Ġpleaded":7699,"eeling":7700,"Ġreunited":7701,"Since":7702,"ongo":7703,"Ġcoach":7704,"Goodnight":7705,"Ġantic":7706,"fia":7707,"ĠOkay":7708,"Ġnewfound":7709,"Ġsupported":7710,"Alright":7711,"ĠPippa":7712,"Ġspies":7713,"Ġdecisions":7714,"Ġbaskets":7715,"idey":7716,"Ġmarve":7717,"ugging":7718,"Ġguessing":7719,"Ġsimply":7720,"ms":7721,"ĠMabel":7722,"Ġfocus":7723,"Ġmailed":7724,"Ġimages":7725,"Ġcrowns":7726,"Ġspells":7727,"Ġvehicles":7728,"Ġmasterp":7729,"Ġnurses":7730,"Ġofficers":7731,"inted":7732,"Ġsav":7733,"Ġlies":7734,"Ġbirdhouse":7735,"ails":7736,"Ġdespite":7737,"Ġexamining":7738,"Ġawoke":7739,"Ġbothering":7740,"Ġpupils":7741,"Ġcongratulated":7742,"crow":7743,"Ġmood":7744,"rie":7745,"ading":7746,"Ġmemb":7747,"Ġcovering":7748,"Ġcampfire":7749,"Ġarranged":7750,"Ġmembers":7751,"Bunny":7752,"Ġdump":7753,"elie":7754,"Ġsped":7755,"Ġexcept":7756,"ĠFuzzy":7757,"Ġtasting":7758,"Ġcalmly":7759,"Ġinspired":7760,"David":7761,"Hannah":7762,"Ġshoo":7763,"Ġgoodby":7764,"ivia":7765,"Ġsurfboard":7766,"Ġgazing":7767,"True":7768,"Ġtrotted":7769,"erk":7770,"Ġque":7771,"Ġraces":7772,"Ġstored":7773,"Ġforests":7774,"Ġburying":7775,"Ġgrip":7776,"Ġgoodbyes":7777,"mies":7778,"ollen":7779,"uel":7780,"ÅĵHey":7781,"Ġbanged":7782,"olph":7783,"Ġtar":7784,"Ġhundred":7785,"Ġlent":7786,"dding":7787,"Ġswollen":7788,"ĠJoan":7789,"Ġbusiness":7790,"ĠKaren":7791,"udolph":7792,"pen":7793,"acles":7794,"ĠDavey":7795,"Ġcustomers":7796,"Ġwrinkled":7797,"line":7798,"Ġbuddy":7799,"utter":7800,"Ġrin":7801,"Ġspy":7802,"ĠElly":7803,"sol":7804,"Ġexercises":7805,"Ġdelayed":7806,"Ġwhispering":7807,"Penny":7808,"Ġlapt":7809,"Ġjoins":7810,"Ġscram":7811,"Ġwarrior":7812,"ĠWil":7813,"acle":7814,"Ġfigures":7815,"Ġapologised":7816,"Ġdisplayed":7817,"Ġspills":7818,"Ġpeeled":7819,"aven":7820,"worm":7821,"Ġgap":7822,"Ġsurprising":7823,"Ġgenie":7824,"Ġmagazines":7825,"Ġencouragement":7826,"mered":7827,"Ġmaker":7828,"order":7829,"Ġnibble":7830,"Ġmasterpiece":7831,"Ġdep":7832,"Ġchilly":7833,"emma":7834,"ĠDog":7835,"Ġteachers":7836,"Ġpresented":7837,"Ġwounds":7838,"rup":7839,"Ġwasting":7840,"Ġposit":7841,"Ġprick":7842,"Ġspeeding":7843,"Ġdiscussing":7844,"aturday":7845,"Ġlaptop":7846,"ĠSaturday":7847,"Ġstall":7848,"ĠAny":7849,"usty":7850,"ĠFighting":7851,"ĠSpeedy":7852,"ĠPatch":7853,"Ġsewed":7854,"Ġmaterial":7855,"Ġmermaid":7856,"Ġtarget":7857,"Ġdot":7858,"Ġpuck":7859,"Ġinter":7860,"Ġstumble":7861,"Ġspooky":7862,"Ġclerk":7863,"Ġalthough":7864,"Ġtreated":7865,"inkle":7866,"Ġwarmly":7867,"Ġplanting":7868,"Ġtires":7869,"Ġtubes":7870,"rily":7871,"Ġsquaw":7872,"Ġfires":7873,"Ġpurpose":7874,"Ġbelongings":7875,"ĠSnowman":7876,"Ġexperienced":7877,"Ġaware":7878,"Ġwindowsill":7879,"Ġstomp":7880,"Ġscurrying":7881,"Ġglittering":7882,"Ġconcert":7883,"Ġqueens":7884,"we":7885,"wise":7886,"Ġtapping":7887,"Ġfins":7888,"Ġactivity":7889,"Ġsyrup":7890,"Ġger":7891,"rian":7892,"ecca":7893,"Ġscent":7894,"ĠDory":7895,"Ġthanking":7896,"Ġunfortunately":7897,"ĠRain":7898,"Ġdragonfly":7899,"Ġtroubles":7900,"Always":7901,"ĠQuackers":7902,"Ġrefuse":7903,"Ġnibbled":7904,"Any":7905,"Jessie":7906,"father":7907,"iens":7908,"Ġaliens":7909,"elle":7910,"Ġswap":7911,"Ġtrans":7912,"Ġjoked":7913,"Ġuntied":7914,"ipes":7915,"Ġscarecrow":7916,"Ġwealth":7917,"ĠMarie":7918,"Ġcrystals":7919,"Ġwiggly":7920,"Ġemerged":7921,"rier":7922,"screen":7923,"Ġsolving":7924,"Ġclassmates":7925,"ĠZoomy":7926,"Ġorders":7927,"Ġargum":7928,"Ġlabels":7929,"rest":7930,"artled":7931,"Ġflips":7932,"Ġexpert":7933,"ĠSte":7934,"Ġexplains":7935,"Ġstudent":7936,"Ġsqueaked":7937,"Anne":7938,"ĠMaddie":7939,"Ġannoyed":7940,"hil":7941,"Ġdecl":7942,"ĠDuck":7943,"Ġdoorbell":7944,"ĠSpidey":7945,"Ġdisc":7946,"Josh":7947,"ĠBubba":7948,"Ġadmiration":7949,"Ġcocoon":7950,"ris":7951,"yl":7952,"ĠSk":7953,"Ġrays":7954,"Ġtweet":7955,"Ġpermitted":7956,"ĠFiona":7957,"Ġpeep":7958,"Ġjud":7959,"Ġfoxes":7960,"Ġtesting":7961,"Ġartwork":7962,"Ġforgiveness":7963,"ammy":7964,"Ġexch":7965,"ĠElle":7966,"Ġpriz":7967,"Ġbackpacks":7968,"rrrrrrrr":7969,"Ġattacked":7970,"Ġscrambled":7971,"Ġtransf":7972,"Ke":7973,"Ġloc":7974,"ĠEddie":7975,"ortunately":7976,"Ġtoolbox":7977,"Chloe":7978,"Ġrobbers":7979,"ĠExcited":7980,"ĠBongo":7981,"chy":7982,"ĠWelcome":7983,"Ġsunscreen":7984,"illiam":7985,"Ġpurrs":7986,"Quack":7987,"Am":7988,"Jess":7989,"inger":7990,"ighing":7991,"Ġloses":7992,"Ġvegg":7993,"Ġservant":7994,"Ġtwists":7995,"Ġterrified":7996,"ĠPatty":7997,"Dear":7998,"ĠAlly":7999,"Ġnodding":8000,"Ġtidied":8001,"Leave":8002,"Ġsternly":8003,"Ġtype":8004,"Ġanticip":8005,"Ġbitten":8006,"ĠJaney":8007,"Ġhonking":8008,"Ġstroke":8009,"Adam":8010,"lo":8011,"Ġbou":8012,"rick":8013,"ĠMina":8014,"ÅĵSee":8015,"ĠRudolph":8016,"Ġastronauts":8017,"Ġbouqu":8018,"Joy":8019,"Ġcharge":8020,"ÅĵThe":8021,"Car":8022,"Rachel":8023,"gain":8024,"Ġicing":8025,"Ġrely":8026,"ortun":8027,"Ġgrandson":8028,"Ġmischie":8029,"Ġmosquitoes":8030,"Ġmischievous":8031,"Ġting":8032,"Ġseals":8033,"Ġfailed":8034,"Ġuntie":8035,"Ġconvin":8036,"ĠOther":8037,"Ġchocolates":8038,"Ġprayers":8039,"Ġopportun":8040,"Ġbeaming":8041,"Ġconversation":8042,"iscuit":8043,"Ġaim":8044,"Ġtoss":8045,"Ġsprout":8046,"Stay":8047,"Ġpandas":8048,"Boys":8049,"Je":8050,"Poppy":8051,"Rosie":8052,"what":8053,"Ġdonkey":8054,"Ġcleared":8055,"Ġdiso":8056,"Ġdiamonds":8057,"ĠAngel":8058,"Ġencountered":8059,"ĠSplash":8060,"ooking":8061,"Ġteles":8062,"Ġbeautifully":8063,"Ġzooms":8064,"Meanwhile":8065,"Ġrescuing":8066,"Ġtelescope":8067,"sm":8068,"yler":8069,"agic":8070,"Ġends":8071,"ĠStan":8072,"Ġinsisting":8073,"Tweetie":8074,"Ġnearest":8075,"Beth":8076,"Two":8077,"Ġwhimp":8078,"Ġyoungest":8079,"Ġlowered":8080,"Ġsweaty":8081,"abra":8082,"Ġtilted":8083,"Ġsens":8084,"idence":8085,"amma":8086,"ĠDespite":8087,"ĠFreddie":8088,"Ġaeroplanes":8089,"Ġoppos":8090,"Ġroutine":8091,"Ġshimmering":8092,"ĠLion":8093,"Thomas":8094,"Ġbrightest":8095,"Ġcrawls":8096,"Ġmillion":8097,"Ġlipstick":8098,"Ġresponded":8099,"Ġmatey":8100,"Ġanticipation":8101,"Ġhoo":8102,"ats":8103,"Ġbeating":8104,"aint":8105,"ĠFlo":8106,"Ġturtles":8107,"Ġgoats":8108,"Ġstatues":8109,"Ġtaped":8110,"its":8111,"Ġdressing":8112,"Ġbeeped":8113,"Ġmeowing":8114,"Ġsurvive":8115,"Ġveggies":8116,"ĠSw":8117,"Ġinches":8118,"Ġbea":8119,"ĠDino":8120,"ÅĵSure":8121,"Ġdripping":8122,"ĠKaty":8123,"Ġghosts":8124,"ĠRobo":8125,"Ġopposite":8126,"Bang":8127,"munk":8128,"Ġblond":8129,"ĠRuth":8130,"Ġvisits":8131,"Ġscratching":8132,"Ġvibr":8133,"Ġquarre":8134,"Ġswayed":8135,"Ġsteering":8136,"Ġaisle":8137,"oosh":8138,"ĠBow":8139,"Ġshall":8140,"romise":8141,"Ġmanners":8142,"ĠYouÃ¢":8143,"ilda":8144,"Ġbeeh":8145,"ordinary":8146,"Ġrecorder":8147,"Ġtidying":8148,"Ġbreaths":8149,"Ġgrandfather":8150,"Ġfilms":8151,"Out":8152,"ĠAmanda":8153,"Ġdangers":8154,"Ġvisitors":8155,"Ġseagulls":8156,"Ġunwra":8157,"Ġdeclared":8158,"hind":8159,"ĠHold":8160,"ĠBecky":8161,"Ġrotting":8162,"Ġincreasing":8163,"Cla":8164,"Ġhen":8165,"ilities":8166,"Ġswitched":8167,"Ġobeyed":8168,"ĠJean":8169,"Ġswaying":8170,"Ġdodged":8171,"lor":8172,"Ġgrat":8173,"Ġpicnics":8174,"Ġrobin":8175,"Ġcheckout":8176,"Ġenviron":8177,"Ġdiscoveries":8178,"Ġquestioned":8179,"Ġcowboys":8180,"Ġcustomer":8181,"Ġmanager":8182,"Ġargument":8183,"Mat":8184,"ĠJax":8185,"Ġchipmunk":8186,"Ġenvironment":8187,"pit":8188,"Ġrumbling":8189,"Ġtwenty":8190,"ctric":8191}