#version: 0.2
h e
Ġ t
Ġ a
Ġ s
Ġ w
n d
Ġt he
e d
Ġa nd
Ġt o
Ġ b
i n
Ġ h
Ġw a
r e
o u
Ġ f
i t
Ġ c
Ġ l
Ġ d
e r
Ġ he
Ġ m
Ġ p
Ġwa s
o m
Ġ T
Ġ o
a y
a r
i s
in g
i l
Ġ g
i d
a t
e n
Ġ n
Ġs a
Ġh a
ĠT he
Ġ S
a n
i m
o r
o n
Ġ it
Ġt h
l l
l e
Ġ H
o t
Ġhe r
e t
i r
ĠS he
e s
ĠH e
Ġ in
v er
u t
o w
ĠThe y
c k
Ġ e
Ġ y
Ġ u
l d
o o
Ġsa id
il y
i g
Ġ r
Ġ "
Ġb e
a m
Ġ I
Ġs t
k e
c e
v e
Ġs he
it h
p p
Ġw ith
L ily
O n
Ġo n
Ġy ou
k ed
Ġo f
r i
n t
Ġp l
Ġh is
a d
Ġs o
ver y
Ġd ay
Ġth at
Ġu p
Ġpl ay
Ġha d
Ġ Lily
s t
Ġthe y
Ġw e
Ġm om
Ġ B
Ġf or
e l
u n
ou ld
' s
T he
m y
Ġl i
c h
Ġha pp
Ġwa nt
en t
Ġs h
it t
ou t
he r
Ġn ot
Ġd o
s e
om e
l y
Ġ very
ou nd
e nd
a ll
Ġw h
Ġ k
im e
itt le
Ġt ime
a l
Ġl ittle
Ġ M
Ġn e
h t
Ġthe re
Ġ is
Ġhapp y
Ġb ig
Ġ re
ĠI t
Ġs m
Ġb ut
Ġ Ċ
Ġa n
Ġsa w
a ck
. "
r y
ri end
Ġf riend
Ġa s
r a
On e
id e
a ke
' t
u g
! "
Ġl oo
Ġwe re
t er
v ed
Ġl o
o re
On ce
e c
Ġto o
Ġh im
Ġb o
Ġg o
Ġs e
Ġa re
Ġ j
ĠT im
Ġwant ed
ar d
ir l
il l
Ġthe m
Ġup on
Ġg irl
Ġ out
Ġa t
Ġthe ir
u r
i nd
f u
w ay
Ġd id
Ġ A
Ġs p
Ġsm il
Ġc ould
he n
Ġha ve
a in
he d
ar t
Ġe x
r om
Ġc an
Ġw ent
ĠB en
Ġa r
i c
l p
? "
fu l
oo d
Ġ J
Ġfriend s
h ing
ig ht
Ġn am
Ġk n
Ġa ll
Ġhe lp
Ġs ay
u m
ar k
on e
Ġb ack
Y ou
ĠT om
Ġf un
Ġc l
a re
Ġn o
Ġl e
o p
Ġs c
Ġnam ed
Ġa l
Ġsmil ed
ou g
Ġm an
el t
Ġlo ved
s ide
i ck
Ġ One
Ġto y
Ġli ke
Ġas ked
Ġf elt
Ġf e
Ġloo ked
Ġse e
Ġm e
Ġs ome
Ġar ound
am e
om et
Ġr o
Ġ W
Ġb r
u re
Ġb ir
ĠTim my
i ce
g et
Ġw ould
Ġbo y
Ġst art
on g
s s
Ġbir d
Ġf a
Ġs omet
d d
Ġa g
ing s
Ġm ake
ad e
Ã ¢
â Ĥ
âĤ ¬
, "
Ġwh at
Ġw or
Ġ You
Ġsay s
k ing
ĠB ut
ow n
Ġr an
Ġa way
Ġt re
i e
get her
ar ed
a g
ou d
Ġstart ed
i f
Ġm ade
Ġc ar
Ġsomet hing
Ġto gether
t her
Ġp ark
Ġc o
Ġsa d
it ed
Ġo ther
Ġne w
Ġp ut
Ġf rom
e ll
Ġh ug
Ġl a
Ġex c
Ġp r
Ġ L
b le
oo k
Ġag ain
a ch
Ġm u
Ġg ood
Ġh ome
Ġw hen
e p
Ġwh o
ri ed
Ġf l
Ġc h
es t
Ġf ound
Ġthe n
pp ed
h at
Ġd ec
a s
Ġwa l
Ġg et
Ġplay ing
q u
n n
oug ht
Ġs w
Ġ E
u ck
p l
Ġli ked
all y
Ġth ings
ou s
Ġg ot
Ġexc ited
r o
Ġb l
id ed
ar a
Ġyou r
a ve
ĠM om
Ġc ame
Ġe very
Ġdec ided
Ġ D
Ġdo g
a x
Ġsc ared
Ġ v
u st
Ġon e
Ġd own
ou se
Ġc are
nn a
Ġf ind
is t
n y
a p
Ġbe c
The y
Ġth an
u e
Ġfe el
Ġw ill
Ġd ad
Ġm y
Ġa b
u dd
ar n
Ġloo k
ou r
Ġ ke
Ġg r
Ġg ra
u s
nd er
es s
way s
Ġp o
Ġdid n
Ġtoo k
f e
er s
Ġab out
Ġtoy s
Ġal ways
b b
an t
ĠS am
Ġl ot
Ġb all
Ġkn e
Ġmom my
is e
Ġtre e
Ġout side
Ġth ought
Ġ F
Ġm ore
Ġt a
en ed
it e
Ġle arn
Ġh o
c hed
re t
ec i
Ġkn ow
Ġin t
g ed
Ġo ld
Ġs or
Ġc at
Ġt ake
Ġla ug
i ve
eci al
Ġsp ecial
ĠM ax
i a
Ġkne w
udd en
Ġan y
Ġt r
Ġp e
f ter
Ġh ow
Ġsor ry
udden ly
in k
m a
Ġsh ow
B ut
Ġr un
is h
Ġs l
a u
Ġt w
Ġmu ch
a nd
Ġha nd
Ġo r
Ġh ouse
Ġo p
v en
Ġm o
Ġs k
Ġcl o
Ġt ried
Ġs un
T om
Ġwa ter
Ġint o
Ġin side
an k
um p
at e
Ġto ld
Ġg ave
Ġpr oud
Ġ qu
ĠS ara
Ġth is
Ġ en
Ġ if
Ġe ach
t y
Ġhe ard
Ġo ver
a ce
ĠW e
Ġne ver
Ġcould n
Ġe at
ĠA nna
Ġro om
b y
d y
Ġp ret
ot her
ĠE very
au se
Ġp ick
i on
Ġplay ed
a k
M om
et ter
Ġex pl
g e
Ġhug ged
Ġg re
Ġj ust
he re
Ġc om
Ġbo x
ot h
Ġwa t
Ġof f
Ġn ice
Ġne ed
Ġman y
' m
Ġst r
Ġbec ause
il e
Ġsm all
g ry
i z
Ġb u
v ing
Ġj o
Ġf o
Ġl ong
in e
im al
Ġs n
Ġan imal
u c
Ġbe ar
or t
Ġt ry
oug h
ur t
Ġu nt
s el
Ġlearn ed
il d
s ed
Ġunt il
Ġlo ve
Ġk ind
ĠJ ack
Ġb etter
f t
Ġfl ow
ĠM ia
Ġ im
Ġd on
H e
Ġc all
ur n
Ġe nd
u ll
Ġb est
Ġc le
e m
ĠA nd
ad y
ar s
Y es
re am
ur p
v es
Ġa d
a ut
v ent
Ġfa st
Ġcare ful
ĠJ o
Ġ C
ard en
Ġg arden
T h
b er
Ġbe aut
Ġf i
Ġthan ked
Ġj ump
Ġc he
Ġsk y
p t
i es
Ġb ra
Ġe ven
ĠS o
Ġlaug hed
a se
Ġl oud
Ġt e
I t
Ġb y
ll y
ĠH er
sel f
Å ĵ
in y
Ġg l
Ġl ist
w n
le w
Ġc ome
Ġbeaut i
Ġh ard
Ġh urt
Ġbeauti ful
Ġst ill
Ġwa y
Ġr a
Ġanimal s
Ġw o
Ġf am
Ġlot s
Ġu nder
ĠThe n
Ġl et
Ġst ay
he s
n ing
ec t
c t
b e
Ġb oth
Ġ Ã¢
Ġb ad
Ġsa fe
Ġc u
ĠF rom
ĠH is
Ġco l
oo l
k ay
o ck
Ġre m
op le
Ġb ook
re e
Ġim p
a st
Ġtw o
T im
Ġit s
Ġsh ould
Ġli ved
Ġan gry
re ss
N o
is hed
Ġbra ve
an e
Ġr ed
ig h
urp r
uc y
Ġwal ked
Ġf lew
Ġpe ople
Ġfam ily
Ġs urpr
o b
W hen
Ġf in
Ġst or
Ġso on
Ġcall ed
Ġsh are
i p
Ġf ly
Ġd an
f ore
L et
Ġke pt
l ed
x t
Ġf ore
Ġp ic
dd ed
is ed
Ġro ck
Ġcle an
h n
Ġdo or
B en
Ġpret ty
Ġgo ing
ĠW hen
Ġ P
Ġke ep
Ġn ow
Ġdo ll
Ġsh iny
Ġno ise
Ġd ra
âĤ¬ â
Ġw ind
Ġc ry
Ġop ened
um my
Ġre al
Ġad vent
ar y
ag e
Ġ ide
Ġbe fore
Ġt urn
s o
Ġst o
Ġc on
Ġgr ound
il ly
Ġal so
le s
i ed
Ġexpl ore
W hat
Ġf r
Ġe y
Ġide a
Ġcol or
Ġf ar
Ġha s
Ġno dded
o on
Ġwa r
T hat
im b
t h
o y
Ġpick ed
Ħ ¢
âĤ¬â Ħ¢
k es
Ġu n
Ġne xt
Ġcl imb
t hing
u ch
Ġm a
t ure
Ġfeel ing
Ġsmil e
ĠD ad
ĠL ucy
ay be
Ġwh ile
Ġb ed
Ġwal king
e et
Ġth r
g er
Th ank
Ġadvent ure
Ġtr uck
Ġg ive
Ġbe ing
Ġw r
Ġ G
Ġclo s
Ġth ink
ic ed
Ġf ood
Ġpic ture
Ġd if
f f
Ġto w
t ed
i ous
j oy
Ġlist en
Ġb re
ug ht
ĠS p
a c
Ġey es
Ġbr o
Ġsto pped
Ġa fter
Ġd el
Ġwa it
Ġloo king
Ġo wn
t ing
Ġre pl
Ġv o
em ber
Ġsh out
Ġflow ers
Ġhe ad
Ġwal k
Ġhand s
Ġgre at
Ġbl ue
Ġe ver
Ġwo nder
S he
Ġen joy
ĠS uddenly
ir st
iz ed
Ġf ish
bb it
S uddenly
Ġne ar
Ġimp ort
Ġsl ide
Ġnot iced
Ġqu ick
Ġme an
Ġd is
a ble
Ġs ound
Ġfore st
Ġu s
ll ow
Ġa pp
Ġrem ember
Ġd e
Ġas k
Ġr ain
le ase
Ġo kay
Ġimport ant
Ġwat ch
ma z
Ġa maz
Ġshow ed
Ġst ick
Ġwor k
Ġra bbit
bb ed
Ġbo at
W e
Ġt al
Ġa c
Ġrepl ied
fe re
by e
Ġbr ight
g an
Ġr ight
Ġdif fere
Ġstr ong
A nna
Ġevery one
Ġfo llow
d ay
Ġ our
Ġt ra
Ġwat ched
Ġs qu
ĠSp ot
Ġu se
Ġw here
Ġquick ly
er ed
at h
Ġdo es
Ġm or
Ġy ell
Ġy e
Ġfa ce
Ġbe en
Ġvo ice
L ook
Ġh op
S o
ĠMom my
Ġd ress
ĠS ue
Ġc r
n g
Ġdiffere nt
an ge
Ġa m
ĠB ob
S ara
Ġch ild
Ġ N
Ġcu ri
a ught
Ġbec ame
Ġs ure
Ġh igh
il a
Ġm ag
Ġpl ace
Ġgood bye
Ġst ore
Ġwar m
Ġ R
Ġclos er
Ġfor g
Ġt ell
Ġc ook
le ep
Ġcuri ous
nd ma
Ġc ake
Ġbl ock
m ore
Ġany more
un ny
a ss
Ġfa v
ou nt
c o
Ġbe l
Ġn ight
Ġop en
J o
Ġp ull
it c
Ġf irst
Ġ z
ir ed
ĠT h
Ġhe re
a ched
Ġb us
im es
Ġp u
H er
Ġfe ll
is s
Ġth ree
Ġp ain
Ġr u
C an
Ġle a
or n
Ġgra bbed
Ġbut ter
Ġk id
Ġsw eet
Ġon ly
Ġm on
Ġse es
Ġbird s
Ġjump ed
itc hen
Ġk itchen
Ġfl o
Ġhelp ed
Ġst op
Ġsa nd
Ġcon t
Ġfi re
Ġb it
Ġb a
is y
Ġgl ad
Ġhapp ened
Ġt ri
Ġs ing
Ġgra ss
Ġd r
ĠD o
Ġp er
Ġshout ed
Ġbr other
ĠL et
A fter
Ġbe h
nt s
Ġstor y
Ġre ached
a ir
ĠSara h
Ġreal ized
pp y
Ġl ady
in s
Ġy ummy
ak es
Ġh at
Ġm ess
Ġso ft
Ġb unny
Ġha ving
Ġat e
' re
Ġpret end
Ġfav or
Ġunder st
Ġl ess
ĠJ ane
Ġg ame
ĠA s
Ġc re
Ġfavor ite
Ġdra w
Ġre st
Ġpr in
ĠEvery one
Ġre ady
z y
Ġthr ough
Ġp ap
Ġp are
w here
Ġth ing
ĠC an
Ġm um
Ġd uck
ĠT hat
Ġmag ic
k en
Ġlook s
Ġre ally
at er
Ġma king
at her
Ġhim self
Ġwor ld
Ġc ut
Ġbe gan
Ġd one
Ġcom ing
Ġkid s
Mom my
Ġt ired
Ġcar s
ĠJo e
fu lly
Ġp rom
Ġpo nd
Ġbutter f
Ġwa ved
Ġwh y
Ġto uch
W ow
Ġfi x
b o
Ġwor ry
Ġcat ch
Ġst e
st er
Ġfun ny
Ġf ro
Ġnam e
Ġflow er
Ġc ried
Ġp art
Ġf ill
u ff
Ġp us
Ġho ld
s h
Ġblock s
Ġan other
Ġha ir
Ġu sed
re l
Ġse en
Ġm ouse
one y
ed dy
ig n
i ent
Ġto p
Ġgre en
Ġdel ic
Ġta st
Ġc ool
Ġpare nts
i ver
o lly
Ġl ight
Ġho pped
Ġthan k
a isy
Ġless on
m er
Ġdo ing
Ġsurpr ise
Ġli kes
h y
Ġg i
Ġflo or
at ion
ard s
Ġd ri
Ġsw im
Ġw ished
ĠJo hn
A s
Ġpap er
D on
" .
Ġwind ow
Ġsm ell
Ġbeh ind
Tim my
Ġb ag
S am
Ġd ro
Ġrun ning
i ke
Ġc ra
Ġf ull
Ġd ark
Ġb ow
Ġre ad
Ġwor ked
Ġd in
Ġsh o
Ġw ood
Ġtre es
Ġs leep
Ġyell ow
u l
Ġsp ot
and y
Ġho le
re n
u ed
Ġs at
Ġ -
Ġsw ing
Ġlaug h
Ġye ars
ar ing
Ġhapp ily
el y
re w
Ġsl ow
Ġs et
Ġco ld
Ġbutterf ly
Ġsurpr ised
ĠI n
Ġ ice
Ġremember ed
Ġfro g
Jo hn
Ġlo st
Ġhe ld
H ell
Hell o
Ġcare fully
Ġbu y
Ġneed ed
on s
u it
Ġmo ve
Ġany thing
Ġhe ar
Ġle ft
Ġwr ong
Ġd ream
Ġfollow ed
Ġt all
Ġfa ir
Ġenjoy ed
Ġta ble
Ġper f
re ed
Ġh un
en s
Ġe l
Ġd ir
Ġsn ow
Ġa ir
Ġar ri
Ġh ill
c ess
Ġchild ren
in ally
Ġh ot
Ġbook s
Ġfin ished
Ġfriend ly
Ġher self
Ġunderst and
ro ss
Ġp lease
Ġclo se
d s
Ġb ug
Ġh id
Ġcont in
in ed
Ġdelic ious
ĠA fter
Ġm ight
Ġar m
s p
Ġc ast
Ġel se
Ġforg ot
l f
Ġcolor s
ĠL ila
Ġre l
Ġbro ken
Ġg ent
ie ld
Ġarri ved
Ġbu ild
Ġba by
Ġs ong
Ġt ight
Ġg one
at ter
Ġwonder ful
ĠBen ny
Ġa ble
Ġsqu ir
a v
Ġwant s
ĠN ow
as ure
O K
The n
n er
ĠS ally
ĠD aisy
Ġwa ll
Ġfill ed
ro om
Ġcre at
Ġsome one
Ġlea ves
Ġag reed
as k
Ġy es
i ch
Ġsquir rel
Ġc ount
Ġp ink
Ġcontin ued
ĠThe re
e y
' ll
J ack
e e
Ġbre ak
ĠE m
Ġv is
Ġli on
am a
F rom
Ġen ough
Ġpo in
ĠTom my
Ġcook ies
ĠM aybe
Ġf all
Ġmom ent
Ġget ting
Ġmor ning
Ġstay ed
as h
Ġfin ally
ri es
Ġsc ary
a pp
Ġj u
Ġhun gry
Ġgra ndma
Ġf ight
r ow
an ce
Ġsomet imes
Ġturn ed
Ġw et
Ġm akes
ic y
g on
Ġp i
Ġsmil es
Ġbe ach
ĠTh is
Ġtry ing
Ġother s
o om
Ġc ream
Ġclimb ed
Ġfe w
Ġdin ner
Ġcast le
Ġamaz ing
ĠW hat
Ġcom p
Ġlist ened
a pped
c ed
Ġ K
Ġpicture s
Th is
Ġtal k
Ġm et
r ot
r ed
ke y
Ġm other
A t
Ġf ur
Ġcl ot
Ġta il
ou p
l c
Ġclot hes
Ġmu s
Ġperf ect
or ing
Ġwh ite
Ġm ar
H is
m an
Ġpu ppy
Ġdad dy
Ġball oon
Ġsa il
Ġask s
ct or
ĠG ra
en ce
Ġal one
Ġp et
Ġpo l
am p
O h
uff y
is ter
ĠB illy
Ġsp l
Ġs it
Ġbr ought
Ġwas n
Ġjo y
Ġpull ed
d er
at ed
uck y
Ġsp ark
Ġstr ange
Ġevery thing
Ġwood s
Ġse ar
ĠT o
Ġgr ow
Ġdan ger
Ġde ep
w l
Ġwa ited
ĠJ en
Ġr ide
ot t
Ġp ie
Ġpl an
Ġvis it
Ġw on
Ġro ll
et er
Ġh ide
Ġp at
ow er
Ġfo x
Ġle ave
m e
Ġamaz ed
an g
Ġtre at
Ġrun s
e ver
o s
Ġt eddy
m ed
Ġs illy
Ġmus ic
z z
Ġcl oud
Ġtow ards
M aybe
ĠA my
Ġthink s
Ġli ving
Ġfly ing
Ġp en
Ġsh ap
M ax
Ġla nd
Ġsh ared
Ġp re
O kay
g s
Ġprom ised
Ġown er
am es
is es
op e
ug g
ain ed
Ġg u
th y
Ġf ield
Ġr ace
Ġp a
ig g
Ġqu i
Ġjo b
ck et
Ġs ide
Ġm oney
Ġpain t
Ġmor al
Ġl ake
Ġbel ie
Ġs ister
Ġfast er
Ġwe ar
av y
o l
u p
c le
Ġpart y
Ġqui et
Ġbr an
or m
Ġs ec
u ally
un ch
ec es
ĠJ im
Ġcolor ful
Ġbro ke
Ġmu st
Ġpi eces
Ġwor ried
i x
Ġgr ate
Ġslow ly
Ġg if
Ġdan ce
Ġtra in
s w
Ġb ott
Ġwe lc
Ġc andy
Ġcu p
as ed
Ġb ike
Ġan sw
Ġre ach
l ing
Ġgrate ful
Ġbl ank
Ġbig ger
z e
Ġe le
Ġch o
Ġs uch
p h
Ġpr o
f ort
Ġtre asure
Ġsc ream
Ġblank et
ĠA ll
le ss
Ġpl ant
i re
Ġsm art
Ġmon ster
Ġbl ack
Ġdanger ous
Ġsn ack
Ġn ap
out h
Ġb ar
Ġw in
Ġ ve
Ġr iver
Ġp ot
Ġmagic al
S ure
Ġtow er
Ġdoll s
Ġm outh
Ġevery where
Ġe m
Ġhelp ing
Ġprin cess
Ġjo in
Ġdra gon
Ġj e
i pped
Ġmo st
Ġdir ty
Ġmon key
Ġdo ctor
Ġth rew
Ġac ross
Ġs ign
d e
e ar
Ġbe e
Ġtw ins
m ing
s et
Ġdis app
Ġfar mer
Ġbow l
Ġcry ing
Ġhe avy
Ġcar rot
Ġfr uit
Ġwor ds
H i
or ed
W hy
Ġsa me
Ġb ite
Ġhe al
ĠF l
Ġhop ed
Ġste pped
b ble
e re
e ared
ĠDad dy
Ġh ig
Ġclo sed
Ġsp r
M ia
Ġp ass
Ġst uck
id ent
ck ed
Ġst re
Ġwould n
Ġac c
Ġb ath
Ġhe art
Ġte ac
ask et
Ġto wn
Ġb asket
Ġfeel s
Ġb uck
Ġbut t
ĠM r
Ġbelie ve
ch ool
Ġat t
Ġco ll
ĠJ ill
Ġc our
ĠM olly
Ġcr ay
Ġm ix
Ġbr own
or d
Ġch air
Ġs chool
it ing
Ġeat ing
Ġpus hed
Ġp ack
Ġfair y
Ġcour se
Ġne igh
Ġs uddenly
Ġcl apped
Ġp ers
Ġgent le
Ġm in
pp ing
Ġh it
Ġhig her
Ġwith out
Ġwelc ome
is sed
Ġneigh b
Ġy ard
or row
t s
Ġst and
Ġteac her
vent ually
Ġsm o
Ġdro ve
Ġpo cket
Ġto day
Ġsw ings
i er
Ġno ises
Ġb en
our n
b r
um b
Ġw ings
Ġfor get
or s
Ġj ourn
Ġche ered
Ġne ck
Ġg ames
Ġf ree
Ġturn s
h o
L ila
Ġpie ce
ve l
ra ct
Ġhug s
Ġd ry
Ġlong er
Ġthr ow
Ġacc ident
Ġsa ng
F inally
Ġhapp en
e ad
Ġexpl ained
Ġal ong
i ble
ou n
Ġsho es
Ġin st
ph ant
Ġm at
itt ing
c y
Ġse a
Ġc orn
c hes
Ġl ate
Ġl on
Ġm iss
Ġwe ll
Ġf ence
Ġw ish
Ġtr ou
Ġyou ng
Ġsh ook
m ent
Ġlon ely
Ġstor ies
Ġl unch
Ġele phant
Ġw he
Ġadventure s
Ġp urp
Ġsing ing
Ġsec ret
Ġc aught
Ġmo ved
Ġst ar
Ġup set
ap e
ĠM ary
Ġm ine
Ġd ist
Ġrock s
Ġst ars
aught y
Ġpl ac
Ġp h
e k
bb y
Ġn aughty
Ġto m
ount ain
Ġbel ong
D o
ĠGra ndma
c es
Ġapp le
ock ed
Ġbr ing
Ġw ise
Ġs oup
Ġdro pped
Ġj ar
fu sed
y ard
Ġstre et
Ġor ange
Ġnear by
Ġta king
Ġbuck et
Ġpurp le
Ġke y
Ġsh op
Ġo wl
Ġback yard
Ġsw am
Ġp ast
Ġdr ink
Ġexpl oring
b ow
Ġshap es
Ġex p
a il
ll o
u b
Ġ es
Ġre sp
ĠEm ma
ĠTh ank
w ard
Ġsee med
Ġben ch
Ġin v
Ġrel ie
aught er
Ġfar m
Ġma il
Ġc a
Ġye ar
Ġbus y
Ġta kes
Ġsound s
un g
es e
Ġa f
Ġwo ke
Ġju ice
us h
Ġno se
Ġm ad
s y
Ġnot hing
ad ow
Ġc ou
Ġst u
Ġth ough
Ġarm s
ĠFl uffy
Ġcom es
ion s
A nd
c ing
Ġt iny
Ġc ow
Ġ 3
co l
it y
Ġhold ing
f ish
Ġwonder ed
Ġ O
Ġd es
Ġn est
w eet
Ġs itting
Ġm ark
Ġs ick
Ġrain bow
Ġbran ch
Ġf it
Ġd aughter
Ġb oun
Ġp ig
ra id
th day
Ġdri ver
Ġc ir
Ġaf raid
o se
in ing
re ad
t o
Ġco at
Ġm il
Ġo b
Ġr ound
pp er
Ġli ft
ĠIn side
Ġgif t
Ġpat ient
Ġcar ry
Ġfore ver
id ge
itt ens
Ġk ing
Ġhug e
Ġcut e
Ġpe ace
Ġbre ad
Ġl etter
Ġto u
Ġtou ched
Ġrelie ved
Ġk ite
Ġprom ise
Ġsp oon
ĠC ome
ver ed
O f
Ġb and
Ġche ese
our s
et h
Ġhe llo
st ing
Ġp ower
Ġf ing
Ġwh ist
Ġgra b
le t
Ġbir thday
ĠF inally
o g
bo ard
Ġswim ming
Ġint ere
Ġshe ll
c er
Ġjourn ey
He y
Ġon to
Ġexc iting
Ġa ct
Ġg igg
Ġk ick
ĠM ama
u nt
Ġw ra
Ġday s
s c
sh ine
it ch
Ġli fe
g g
Ġm ist
Ġsun ny
Ġlaug hing
Ġput s
g ged
Ġmil k
Ġre t
Ġhop e
Ġgi ves
Ġbus h
Ġcreat ure
Ġcom fort
Ġbott le
ar p
Ġco zy
Ġw om
Ġl ucky
Ġwom an
Ġdis co
al m
Ġinst ead
p ed
ĠSam my
Ġe ar
Ġduck s
Ġsp in
Ġpoin ted
Ġcoll ect
Ġsun shine
Ġsh arp
n ess
Tom my
t en
Ġret urn
Ġim ag
Ġaccident ally
Ġp udd
Ġro ad
ĠSo on
el s
Ġe as
Ġwatch ing
Ġin c
Ġc ave
Ġl ater
L ater
Ġf an
Ġh oney
Ġsmil ing
b all
Ġany one
Ġs uc
ble m
Ġtal ked
Ġpro blem
Ġb ought
Ġh or
Ġsp o
Ġ ent
Ġg ather
iz e
Ġpers on
Ġsear ched
itt en
p a
r ound
Ġsand w
Ġheal thy
G ood
Ġapp les
Ġbutt on
ck s
B ob
Ġc e
Ġp op
ir t
ĠT weet
Ġr ope
Ġm ach
Ġlo ves
Ġtrou ble
Ġcray ons
Ġme et
Ġtast y
Ġintere sting
Ġcloud s
Ġk iss
Ġs u
Ġsmell ed
Ġcle ver
on t
Ġz oom
o ve
e b
am ed
Ġpl ane
Ġstor m
Ġp ile
Ġp ar
Ġm atter
Ġsp id
Ġw ide
Ġad m
Ġsh ining
ow ed
Ġfr ont
Ġv ill
Ġfe ather
Ġp ath
a ur
Ġor gan
Ġresp ect
ĠW ith
Ġpre s
Ġpr ot
Ġscream ed
L ucy
Ġmu d
ĠE ll
Ġe ag
Åĵ I
Ġas leep
Ġp ract
ep end
Ġprot ect
Ġsnow man
a le
nd pa
er ly
Ġspot ted
ĠJim my
Ġz oo
oo se
Ġb ark
Ġsn ake
Ġneighb or
C ome
e en
Ġa p
e x
ĠS omet
Ġs ur
Ġc ard
Ġpu zz
Ġsa f
Ġv al
Ġqu est
Ġw ild
Ġlove ly
Ġte ach
Ġse at
Ġgo es
Ġh on
Ġdan ced
Ġansw er
Ġwh ich
er t
Ġapp eared
is a
Ġp ill
Ġpres ent
o nd
Ġmin ut
Ġche er
Ġtri es
S t
Ġmy ster
Ġgent ly
J ust
Ġhor se
Ġm ed
Ġwho le
ch ing
Ġwe aring
Ġtri p
J im
Ġplac es
Ġforg ive
Ġgi ant
Ġth in
Ġsh r
Ġm ind
ul ar
Ġdir t
Ġsl id
Ġph one
Ġcon fused
Ġte eth
Ġd i
Ġru de
Ġimp ress
ĠM ittens
M olly
Ġroll ed
Ġfa ces
E very
Ġdri ve
Ġwor m
Ġcorn er
ĠG o
Ġre c
Ġli ve
itt y
Ġtast ed
ss ed
ce an
Ġas h
ĠH ow
Ġo cean
Ġch ick
I n
Ġsp ent
iz z
Ġpretend ed
Ġs er
Ġspl as
Ġc alm
Ġmach ine
Ġp our
Ġl ad
M um
Ġsu pp
ĠEm ily
n ic
on es
Ġwa ve
Ġr ing
Ġfe et
Ġl ay
Ġfur ry
Ġo ven
l a
Ġpic nic
Ġsa ck
Ġp an
Ġspid er
Ġla st
Ġcook ie
Ġdel ight
Ġcou ch
Ġtom orrow
Ġpus h
Ġw ip
Ġem b
Ġhelp ful
at o
Ġrem ind
um ber
Ġbu bble
un k
Ġlad der
Ġt un
Ġb an
Ġro b
Ġbuild ing
Ġco in
Ġcho col
Ġneck l
at or
Ġbug s
Ġbe ll
Ġst ret
Ġ ign
Ġkne e
Ġsa l
h ile
Ġsmo oth
Ġb lew
Ġc art
Ġt id
Ġsp read
Ġe ventually
ĠC h
ar ge
Ġm ountain
Ġs el
al s
Ġtal king
Ġhid ing
Ġch ased
Ġsh y
ar ra
n ot
Ġtoo l
Ġfight ing
Ġfo ot
Ġemb arra
Ġwr ite
Ġfin ish
Ġpudd le
m o
if e
S oon
ig hed
Ġcan not
Ġwait ing
Ġsong s
Ġvill age
Ġlea f
Ġp ool
Ġw ore
ĠJen ny
Ġwhen ever
Ġrob ot
Ġfo ld
Ġchocol ate
Ġpa w
ĠSomet imes
Ġn et
Ġh um
Ġst ep
Ġtreat s
Ġcl oth
Ġa nt
Ġsel fish
M y
Ġc oo
le x
Ġban an
Ġc ross
Ġm aybe
Ġtast e
ĠJ ust
Ġbar ked
Ġneckl ace
op h
ul t
Ġshe lf
Ġst ra
Ġstr ing
ĠL e
Ġwas h
Ġfix ed
bo x
ump y
Ġpeace ful
Ġl arge
P lease
Ġtid y
ĠEvery where
ĠS t
ĠP lease
Ġst ir
ell y
Ġg en
Ġre p
Ġso l
Ġspr ay
l ice
Ġsp e
M ama
le br
h nn
o ld
Ġp le
ir d
Ġcol our
Ġcarrot s
Ġce lebr
Ġcreat ive
D ad
Ġb at
air s
ung le
Ġ '
Ġpl ate
Ġembarra ssed
or ry
Ġjump ing
Ġst one
Ġwh is
N ow
ur se
ar m
Ġj ungle
Ġwhist le
Ġstick s
o in
ig er
Ġtr ust
Ġm issed
ĠThe ir
Ġcra b
ĠJ ake
Ġsc ar
Ġhe ars
Ġkn ocked
ĠT V
Ġd eter
Ġhe l
Ġdec or
Ġland ed
Ġfor ward
Ġsh aring
hnn y
ĠS ome
Ġte a
Ġle gs
Ġdeter m
Ġtell s
mo st
Ġmo on
Ġsh irt
Ġem p
Ġemp ty
Ġdisapp oin
get able
Ġal most
Ġve getable
et s
ĠD on
n ed
Ġspl ash
Ġash amed
Ġs our
g round
Ġgen er
y ing
Ġgre w
Ġme ant
i an
Ġgr ay
Ġtight ly
Ġno ds
d ge
Ġme adow
a king
Ġwhis p
B e
Ġpol ice
Ġje w
ĠA nn
Ġsa ve
Ġbre ath
Ġunderst ood
Sara h
er ry
ĠL isa
Ġg as
Ġb al
Ġthe se
d le
ĠW hy
T o
Ġ On
er p
Ġst ood
it al
Ġyell ed
Ġcar ried
Ġg un
Ġhon est
Ġsp icy
Ġdisappoin ted
d en
Ġsnack s
Ġn ut
Ġshe ep
Ġho sp
Ġpill ow
Ġp ay
an o
Ġhosp ital
v ous
ĠT eddy
Ġsuc cess
Ġsee k
St op
Ġb ored
Ġh ours
Ġk itten
Ġl ine
Ġp izz
Ġgo ld
Ġle m
ust r
Ġt est
o bby
Ġspark ly
Ġpower ful
Ġd rew
ar l
Ġsh ip
or k
Ġj elly
Ġgl ass
k in
Ġsh ore
Ġhid den
Ġgener ous
W here
Ġwa ves
Ġfe ar
ĠR ex
Ġm ot
Ġcl ass
Ġ Z
ĠB e
bo dy
Ġfe ed
Ġreturn ed
Ġeas y
ĠE ven
ĠTo gether
Ġpuzz le
Ġstand ing
Ġv an
Ġse ed
Ġs ighed
Ġfr ustr
Ġbed room
Ġclos et
Ġta ught
on y
Ġr ad
Ġgr oup
Ġknow ing
if f
in a
Ġplant s
h in
Ġk issed
Ġp in
Ġsleep y
Ġn er
Ġbl ow
Ġche w
Ġso ld
Ġpizz a
itt er
Ġmess y
Ġc ries
Ġcr own
ĠM um
c les
au l
' d
Ġpo or
Ġner vous
Ġp ri
The re
g ly
Ġa v
Ġdeterm ined
Ġh ur
Ġthank ful
Ġb urn
er a
Ġte ars
Ġg ate
Ġfan cy
Ġf ig
Ġyour self
Ġmyster ious
J ane
Ġpol ite
Ġu gly
Ġw is
S orry
Ġminut es
Ġt ick
Ġsandw ich
Ġscar f
ot e
oo p
Ġfing er
Ġha ng
Ġcat erp
Ġcaterp ill
A re
ĠP eter
Ġbr idge
Ġprin ce
Ġfrustr ated
p ack
Ġp ir
w ork
Ġgr umpy
Ġtw irl
Ġes c
Ġwo lf
Ġle g
f l
Ġgather ed
a f
Ġspo il
Ġv ase
Ġdr op
us ie
Ġpass ed
Ġb oring
m b
Ġre g
Ġexc ite
Ġsc r
Ġfl ag
oo f
os aur
Ġof ten
Ġho pping
id dle
Ġlo ck
The ir
ens ive
Ġrock et
Ġt ent
ill ed
sel ves
Ġexp ensive
Ġf il
Ġche st
Ġcl own
Ġcaterpill ar
Ġl it
Ġdan cing
Ġwa gged
Ġget s
Ġbo ss
Ġtr ue
Ġm ummy
Ġdin osaur
Ġc and
Ġde er
Ġta ken
Ġpick s
ĠLe o
Ġm ir
iz zy
iss ors
Ġwor king
Ġp ress
u al
Ġansw ered
s ist
Ġsp end
Ġsa ved
Ġexcite ment
Ġmist ake
ell a
u ce
Ġon es
Ġsc issors
Ġwa nder
Ġt ie
Ġb one
Ġcomfort able
W ho
Ġfruit s
l ight
Ġ OK
Ġm iddle
ĠB r
s er
at es
Ġpack ed
Ġgigg led
Ġkn ight
r or
Ġd est
qu e
eci ally
Ġmed ic
Ġas king
Ġmo v
Ġdog s
Ġst uff
Ġbr ush
Ġc ap
Ġvegetable s
Ġn umber
S p
Ġs ight
Ġple ased
p ecially
Ġwhe el
Ġes pecially
Ġmedic ine
Ġwalk s
us hed
Ġa dd
in ess
ot s
Ġch ange
Ġwe ak
Ġlo se
ĠB l
ug ar
g gs
Ġmo ving
Ġla zy
h a
Ġli cked
Ġe ggs
Ġcl ap
Ġgl ue
Ġg ar
Ġf ake
Ġsweet ie
Ġfeather s
Ġmat ch
Ġsmell y
Ġo k
Ġdraw ing
Ġcall ing
Ġh orn
Ġplay ground
Ġdist ance
ag ed
Ġs ugar
Ġqu een
Ġl ying
Ġcra wl
Ġbec ome
Ġball s
Ġmir ror
ĠJo hnny
Ġdisapp eared
el p
Ġex am
Ġyour s
ĠI f
Ġ No
Ġfl ut
Ġru ined
Ġno d
Ġe ld
Ġb ake
Ġfl uffy
Ġtw ist
Ġbath room
Ġdr um
M e
Jim my
Ġbo dy
Ġdr ank
et e
Ġcr ack
Ġwe ek
Ġsplas hed
Ġrel ax
Ġt ape
at ing
or y
Ġst ones
Ġle ad
Ġno isy
Ġr id
Ġlem on
Ġse ll
Ġc age
Ġme asure
Ġfam ous
Ġm ic
in ation
Ġ ed
Ġd ish
Ġsk ipped
Ġc ri
Ġju icy
Ġinc red
h ip
Ġquest ions
Ġwr ote
Ġex t
S ally
Ġd ig
ugg est
Ġs uggest
Ġro ar
H elp
y al
Ġdec ide
Ġpr ay
en ny
Ġco vered
Ġmom s
Ġ ind
Ġchick en
ee z
ĠA t
Ġor d
Ġche ck
Ġcle ar
Ġeag er
ill i
Ġcont ent
Ġte am
J ill
Ġboy s
Ġbo ard
Ġshow s
Ġsail ed
Ġmot or
Jo e
Ġr are
Ġclean ed
Ġfig ure
Ġtow el
B illy
umb led
al ous
Ġhurt s
Ġsho ot
Ġneed s
Ġgl ow
Ġje alous
Ġf ather
Ġso ap
im p
Ġeld erly
Ġext ra
Ġincred ible
Ġlo yal
Ġbran ches
Ġorgan ized
Ġf ine
Ġf is
Ġr ich
Ġbubble s
Ġb orrow
Ġjo ke
Ġco ins
Ġa w
Ġgar age
?" .
Ġl amp
ĠE nd
Ġadvent ur
f ic
Ġstra w
Ġfr own
Ġoff ered
Ġhappen ing
G ra
Ġmo d
t i
Ġha m
Ġwh ale
Ġon ce
Ġreal ised
Ġt iger
at ely
Ġwa nd
l and
Ġm ap
Ġlift ed
Ġadventur ous
as ing
i pper
W ell
Ġdisco vered
ke ep
Ġch ase
Ġrec ord
i pp
Ġloud er
Ġdif fic
Ġgu ess
Ġsw ord
Ġt ag
Ġsw an
Ġco st
Ġmight y
Ġco ver
Ġey e
ĠL ittle
i que
Ġun us
w led
Ġwe ird
Ġcra wled
Ġar g
p ort
Ġjew el
Ġwor d
Ġtruck s
im ed
Ġtr ack
Ġcolour ful
Ġdiffic ult
Ġan g
S ue
Ġkind ness
Ġbott om
Ġs il
Ġun ique
Ġunus ual
Ġkn ife
ce pt
Ġho se
Ġman aged
ĠBl ue
al k
Ġy og
Ġh unt
Ġgi ving
Ġbal ance
A my
c il
Ġp ump
Ġbanan a
ĠK itty
Ġcir cle
Ġth ick
ur ed
er y
Ġf our
ll a
Ġpen cil
Ġlaugh s
He re
Ġfr ight
M ummy
Ġsh ake
ag es
Sp ot
H ow
Ġed ge
Ġto ug
Ġhard er
Ġa dded
Ġcomp et
Ġf ool
Ġballoon s
a w
ol og
Ġgr own
Ġd epend
ĠS usie
Ġsmo ke
he ad
Ġfall s
ĠM ark
Ġch oose
ĠBr own
keep er
Ġt urt
Ġwra pped
Ġbrother s
Ġb arn
Ġd izzy
er ries
Ġmark et
y m
i v
Ġhat s
Ġca b
Ġb erries
Ġap olog
ra g
ugg led
Ġc her
y e
ĠB obby
Ġbox es
Ġsk in
Ġdream ed
Ġher o
Ġshap e
Ġbl oom
Ġval u
Ġboss y
Ġfl ash
Ġsp un
Ġmean s
Ġpoin ting
Ġbr illi
Ġcir cles
Ġsear ch
Ġlo g
Ġbelong ed
Ġcab in
Ġdo lp
Ġloud ly
Ġimpress ed
re ady
Ġbutt ons
Ġba ld
Ġn orm
Ġe ars
Ġenjoy ing
u nd
ous es
Ġagain st
Ġfav our
Ġgo at
Ġstraw ber
Ġhelp s
Ġbrilli ant
f ast
Ġpe e
Ġis land
Ġlearn ing
Ġre f
Ġmov ie
Ġb atter
Ġtoug h
l ies
j ect
Ġh arm
Ġwra p
em o
Ġsc are
Ġal ready
Ġsay ing
Ġbreak fast
ra ge
at ure
Ġm elt
Ġfavour ite
ĠM y
Ġr ough
Ġnorm al
Ġsaf ely
Ġcompet it
Ġf at
Ġgra ce
an ged
Ġj ack
Ġh ouses
Ġsl ipped
Ġc ro
il t
Ġwa gon
Ġpain ting
Ġli br
Ġcray on
Ġt er
app ing
Ġstu bb
Ġtr unk
Ġknow s
Ġc udd
Ġfool ish
Ġwa ke
Ġesc ape
Ġhapp iness
Ġcheer ful
Ġvalu able
p es
Ġsh ark
ol a
Ġth u
Ġproud ly
Ġsound ed
Ġbird ie
Ġfr idge
re en
Ġla w
Ġfright ened
ĠTo day
Ġstubb orn
Ġgra nd
Ġoff ice
g y
Ġ icy
Ġto ast
Ġsp ace
Ġstu dy
Ġinv ited
Ġd ough
Ġcl ay
Ġnot ice
Ġfi er
c ient
ĠD an
Ġdepend able
art h
ed ient
Ġturt le
Ġwall s
Ġshell s
Ġdream s
om ed
Ġno sy
ip e
Ġg uit
Ġle an
Ġst ri
Ġwip ed
Ġlight s
Ġpour ed
Ġan cient
Ġfier ce
Ġc ity
Ġexc la
Ġt imes
Ġpar rot
Ġro se
Ġp il
Ġac cept
w ards
Ġde ad
Ġuse ful
e xt
Ġexcla imed
Ġter ri
Ġf ountain
Ġdelic ate
ĠEll ie
Ġnice ly
ĠR ose
Ġe gg
Ġsmall er
Ġmix ed
e or
Ġz ip
Ġr at
ĠF red
Ġwe al
Ġbag s
Ġtool s
Ġc am
Ġfing ers
Ġob edient
Ġb itter
Ġst umbled
Ġun l
Ġst ream
ĠMr s
Ġro de
c orn
a z
Ġl ow
ac he
Ġw itch
Ġre sc
Ġo w
Ġmag n
k n
ad o
Ġme m
Ġla b
Ġsuggest ed
ent ion
Ġind epend
Ġcount ed
ĠEll a
Ġkind s
Ġr oof
ĠBob o
Ġbus hes
Ġguit ar
Ġexcited ly
Ġtw ig
Ġdes ign
Ġgra ndpa
ir p
Ġlo cked
Ġsto ve
ia ble
Ġab ove
Ġspin ning
Ġg em
Ġboun ce
Ġc op
Ġjo g
it her
Ġsh adow
Ġsuccess ful
Ġbe ak
Åĵ Let
Ġwhisp ered
Ġbright ly
Ġshow ing
Ġstrong er
Ġscr at
o ot
Ġkick ed
Ġus ing
Ġclean ing
ĠYou r
Ġremind ed
Ġpop corn
Ġexpl ored
in al
Ġthem selves
ĠP ete
Ġor ig
ut h
Ġb ump
Ġsee m
Ġte le
Ġrel iable
Ġpract ice
Ġindepend ent
Ġf rag
Ġh oop
Ġsw e
ĠD ucky
eor ge
Ġadm ired
kn own
E m
Ġtun n
Ġthought ful
Ġboat s
Ġsh one
Ġj am
Ġste al
d om
v ice
am ond
Ġspoil ed
Ġway s
Ġpump kin
Ġjo lly
Ġsn iff
n a
Ġf re
Ġjo ined
Ġy arn
up id
Ġtom ato
Ġt ummy
Ġbu ilt
ĠN emo
Ġbe es
Ġdi amond
Ġplay ful
orm ous
ĠTweet y
co d
Ġorig inal
ar ry
Ġen ormous
Ġun known
o ppy
Ġen g
in es
Ġdelight ed
Ġdo ve
r ay
Ġmar ble
mb re
Ġa unt
Ġc one
Ġhold s
Ġu mbre
Ġch anged
Ġac orn
Ġ U
Ġperf orm
Ġcost um
!" .
Ġmet al
Ġser ious
Ġpo st
ee ze
an ut
Ġra ced
Ġfrag ile
Ġhel m
Ġru bb
Ġen c
S ee
Ġbe an
ĠA lice
Ġs on
Ġd ust
Ġt ank
Ġst upid
Ġprin t
an ger
Ġall owed
Ġcl um
g u
Ġha lf
Ġham mer
Ġcro cod
Ġru b
Ġr ug
Ġst at
Ġpain ted
ĠB u
Ġfind ing
Ġhand ed
Ġst airs
Ġcam era
Ġbe et
Ġsleep ing
Ġm is
Ġg oose
Ġth ose
Ġlea ving
in ary
Ġdoes n
Ġcho se
ur ing
Ġweal thy
Ġsol ve
Ġy et
Ġbra ce
Ġth irst
Ġh ay
Ġthu nder
Ġsun fl
Ġto r
Ġs ink
Ġr ushed
Ġmo der
ic t
Ġtell ing
Ġen vel
Ġpick ing
Ġhair y
Ġang el
Ġgu ard
Ġfor th
Ġche ap
Ġcomp ass
ĠM ar
ĠWhen ever
Ġclum sy
ĠB ella
Ġwas hed
ĠM ike
Ġpe bble
Ġs uit
Ġbu ll
il ty
eb ra
i ence
Ġopen s
Ġgu ilty
Ġcarry ing
Ġdel iver
ug ged
ill a
umb ers
Ġpot ato
G o
he t
Ġthirst y
Ġmiss ing
Ġcare less
Ġterri ble
Ġsal ad
Ġd ull
Ġar row
Ġad vice
Ġsear ching
Ġpe anut
ie w
Ġbar ber
Ġpop ular
Ġlo ll
ro be
Ġmar ch
Ġ ing
Åĵ Yes
Ġwhe els
Ġgas ped
Ġmoder n
ation s
Ġdest ro
ip op
Ġstop s
oom y
Ġpre p
Ġkn ock
Ġf lex
Ġc ur
ag het
Ġz ebra
aghet ti
is k
Ġp atter
c om
Ġv iew
Ġreg ular
Ġflash light
Ġn urse
Ġfre sh
red ient
Ġing redient
Ġru bbed
Ġp ant
Ġthin king
Ġloll ipop
is ion
Ġsa uce
Ġcre ate
f a
t ime
Ġend ing
eez ed
Ġm ask
Ġch ar
Ġpatter n
Ġsp aghetti
Ġseed s
Ġclo ck
ĠGra ndpa
i bb
g est
Åĵ What
Ġdolp hin
Ġsh ocked
Ġlo ad
Ġsqu are
Ġcrocod ile
Ġumbre lla
Ġst age
Ġsh iver
Ġsn e
Ġjack et
up er
Ġpig e
Ġcompass ion
Ġtow ers
Ġt em
Ġn umbers
Ġdri ving
Ġpee ked
Ġw ing
Ġfriends hip
Ġst amp
Ġpers ist
Ġbeet le
ĠF in
Ġpat ch
Ġgrace ful
Ġm el
Ġbig gest
Ġeng ine
Ġst ack
Ġdream ing
Ġflex ible
Ġn ature
Ġe arth
âĤ¬â Ģ
Ġt ied
Ġpir ate
ars h
Ġshe l
Ġpu p
Ġcra zy
Ġstr anger
O w
ell ig
Ġimpress ive
Ġsp illed
Ġtor n
Ġint ellig
Ġc ere
ho st
Ġspark led
Ġent h
Ġpen gu
Ġwar ned
Ġme al
Ġtr uth
Ġstat ue
Ġto oth
ĠF r
Ġear ly
Ġen v
Ġsur f
Ġpri ze
i o
l oo
Ġre ward
Ġenth us
Ġs udden
Åĵ It
ĠW hile
Ġpa le
Ġmail box
Ġcomp ut
Ġg host
Ġli z
Ġwindow s
Ġpen ny
Ġcom b
Ġenvel ope
i kes
Ġingredient s
Ġb ent
Ġtra vel
Ġimag ined
Ġor der
Ġsad ly
ill ie
a wn
Ġtri ang
Ġlibr ary
Ġsor ts
em ent
Ġpi ano
Ġdisco ver
oph ie
W hile
Ġfor k
ic hes
ĠM ummy
Ġjump s
Ġt ur
Ġa head
Ġsc ale
Ġspr ing
Ġdes k
Ġsc reen
Ġnot e
Ġbad ly
M ary
Ġhand le
Ġbrace let
Ġav o
ĠHe re
Ġplac ed
ie f
Ġslid es
Ġtunn el
Ġcere al
Ġper m
ĠS n
Ġgrow ing
Ġre ce
Ġcr ane
Ġpretend ing
Ġspo ke
Ġ er
Ġold er
Ġread ing
Ġflut e
Ġw ire
in ce
Ġso fa
Ġcount ing
Ġhum ble
Ġtra sh
ÅĵLet Ã¢
Ġnam es
Ġcry st
Ġcomp let
Ġdestro y
u d
Ġtur key
a id
Ġtra p
ĠK im
Ġsc atter
ĠD ave
ĠL ook
Ġs uper
com fort
Ġg or
Ġmu sh
Ġharm less
Ġsh ut
Ġmo le
b led
c ream
Ġcouldn Ã¢
Y ay
Ġpersist ent
Ġenc ou
Ġcom pl
comfort able
Ġt ire
udd y
Ġph ot
ĠP e
Ġbeaut y
Ġbutterf lies
Ġp ow
Ġun comfortable
ĠG ive
Ġintellig ent
Ġj ug
Ġtri ck
Ġm ay
Ġsandw iches
Ġc ards
Ġcelebr ate
Ġletter s
Ġcoll ar
Ġn ail
Ġcup board
Ġblue ber
Ġpar ade
Ġbe ep
Ġband age
Ġan x
Ġsc oot
Ġcoo king
Ġquest ion
Ġcomput er
Ġde af
Ġhun g
Ġgif ted
Ġliz ard
Ġun cle
or ant
ri c
ĠTo by
Ġanx ious
Ġcar p
Ġre fused
Ġgl oomy
Ġob ject
u bby
Ġcompetit ive
Ġt ask
Ġtwirl ed
Ġord inary
ip s
Ġle ash
Ġsn uggled
g ust
Ġval ue
R e
ĠB ear
Ġstick ers
Ġhunt er
Ġcou rage
ic es
en ry
Ġy awn
Ġchar ming
G ive
Ġsunfl ower
Ġspe ed
t ter
ac hes
Ġdis gust
Ġne at
Ġb icy
Ġch asing
Ġch ance
Ġst ation
Ġign orant
Ġhur ry
Ġg um
Ġru les
Ġdraw er
Ġc urt
ĠP at
A lice
a by
Ġt ap
Ġatt ract
Ġcurt ain
Ġfl our
Ġpant s
o e
Ġsold ier
ĠL ola
Ġun iver
Ġset t
Ġmush room
Ġc amp
ar ian
Ġb ase
Ġany where
Ġsh ine
Ġal ert
Ġwis hes
Ġh ook
Ġr ice
Ġs end
er able
op us
ct opus
st ri
Ġch ubby
Ġstart s
Ġmis erable
Ġpack age
ce ed
Ġpige on
i est
Ġboun ced
c ut
us ed
Ġshout s
Ġh ipp
Ġl ed
Ġo tter
Ġcompassion ate
Ġcarp et
Ġsh aking
Ġwa ff
ĠS m
s es
Ġsupp ort
Ġd ug
Ġcri cket
Ġo ctopus
Ġall ig
Ġimp at
Ġcreature s
Ġcl ub
Ġlive ly
Ġpress ed
Ġhelp less
Ġpast a
Ġc ase
Ġm ill
Ġfear ful
c u
Ġpe pper
Ġhelm et
Ġsqu ash
arl ie
Ġit self
Ġtr ay
I f
ur b
Ġimpat ient
Ġbright er
Ġdisgust ing
Ġpo em
co a
Ġcart oon
ĠA re
ĠE ventually
Ġstret ched
Ġenv ious
Ġr ibb
Ġhum an
a ked
Ġback pack
ĠW h
Ġb et
Ġp urse
Ġje ep
Ġdist urb
a ff
Ġno body
he art
ĠP olly
Ġth ief
Ġsho e
Ġstret ch
ĠW here
Ġen er
Ġafter n
Ġle op
Ġaftern oon
Ġre sist
um mer
aur ant
Ġmel on
Ġdecor ate
Ġp ony
Ġpract iced
Ġtr ump
Ġneed le
B ye
Ġfil thy
Ġj et
Ġrest aurant
ĠA l
Ġsuc ceed
Ġv i
Ġv ide
Ġsand box
Ġrep e
Ġcand le
Ġcryst al
Ġsome where
Ġm ug
Ben ny
or able
Ġb ri
Ġg ir
ĠS h
Åĵ That
Ġnut s
D aisy
Ġd ess
Ġmagn et
Ġgor illa
Ġstep s
Ġp and
Ġsp ell
Ġbark ing
Ġrest less
Ġt en
Ġattract ive
ĠB ill
Ġsk ip
ic op
icop ter
Ġmu ff
lc ano
stri ch
Ġcu be
Ġgigg le
Ġbicy cle
Ġco coa
Ġc omet
Ġtem p
ar oo
Ġra ven
ang aroo
Ġany way
g ie
Ġnow here
Ġm ath
Ġhel icopter
Ġme as
Ġmonkey s
Ġatt ic
ĠG eorge
g n
Ġa nts
Ġad orable
Ġcoo ked
Ġrad io
Ġfur ther
Ġgrab s
Ġhipp o
ĠL ee
Ġfire man
Ġimp ro
Ġk angaroo
Ġfind s
Ġrespect ful
Ġsc rew
gg ing
st ic
Ġth read
Ġbar rel
ĠM andy
Ġvo lcano
Ġdist ant
ĠTweet ie
Ġtrump et
Ġst ared
n ight
Ġallig ator
Ġso ar
Ġstir red
Ġpull s
Ġbat ht
Ġleop ard
Ġf u
ll ie
Ġf ive
Ġenthus ia
ĠJoe y
Ġbatht ub
Ġenthusia stic
Ġcat s
st airs
ĠBrown ie
Ġh arsh
Ġre co
Ġexpl ain
Ġtrou bled
Ġp un
Ġadm ire
Ġl id
Ġmod est
ĠC l
Ġqu ar
Ġtri pped
Ġsh ield
p ar
s hed
Ġs ent
Ġpaw s
Ġse par
Ġbre at
Ġfor t
Ġun pack
Ġtriang le
Ġso ck
Ġv ine
ĠEvery thing
Ġhapp ier
Ġorgan ize
Ġs le
Ġu r
Ġse al
Ġlisten ing
Ġscoot er
L ittle
e er
c ome
Ġjelly fish
Ġo strich
Ġrep air
Ġsal t
Ġf le
Ġresc ue
Ġrid ing
Ġsor t
Ġfire work
Ġfrown ed
Ġqu ite
Every one
Ġdess ert
ĠJ erry
Ġm ama
oph one
ir it
Ġsail or
Ġha ll
Ġexp er
Ġgi ven
Ġspl it
Ġpa id
Ġsec ond
Ġstick er
Ġb ikes
Ġcow s
Ġp al
Ġs ummer
Ġch alk
Ġsweet heart
Ġp ipe
Ġele v
isk ers
uc t
Ġe ither
Ġmess age
cy cle
b ul
Ġho les
ĠW ould
Ġpus hing
Ġpus hes
Ġch ain
Ġwall et
Ġdidn Ã¢
ĠSm ith
Ġloo p
Ġli ons
Ġob ser
Ġswe ater
h ood
Ġbear s
Ġs ize
ol in
Ġelev ator
el ery
Ġme at
Ġpo le
Ġshe et
uck ed
Ġbu zz
Ġche cked
i pping
c col
ap a
Ġcount ry
Ġh ive
in king
Ġdis hes
ast ic
y ear
Ġsw itch
Ġjo kes
Ġlight ning
Ġtra ins
Ġli p
Ġhair cut
Ġro ared
Ġo y
ĠA lex
ccol i
Ġre ind
Ġl uck
Ġswing ing
Ġpal ace
Ġforg ave
re c
Ġsh akes
Ġpap ers
er op
Ġbeh ave
erop l
Ġp ed
Ġsc old
ha ppy
Ġreco gn
Ġa eropl
Ġc ush
Ġsp irit
Ġsh ade
Ġwhe at
Ġsil ver
Ġal ive
Ġstart ing
Ġpro v
ed y
Ġspe ak
Ġbel t
Ġbasket ball
Ġer as
Gra ndma
Ġfall ing
u be
Ġb in
Ġhe dge
al ed
en se
c ast
Ġshop keeper
Ġcostum e
Ġreind eer
Ġpe ek
Ġc elery
Ġeven ing
eb ook
Ġmic r
Ġcl apping
Ġra ft
Ġvis ited
Ġo at
Ġnot ebook
Ġpil ot
Ġam bul
Ġsand cast
ĠB et
ĠO r
rec i
Ġgra pes
Ġsho vel
Ġpand a
ag gie
Ġun happy
Ġbro ccoli
Ġsa us
ic er
Ġsoft ly
Åĵ You
Ġzoom ed
Ġcard board
Ġm ild
Ġle ar
Ġneighb our
Ġapp reci
Ġlear nt
pl ay
Ġpengu in
H a
Ġkn ot
J enny
Ġmicr ophone
Ġp or
Ġcol ours
Ġener gy
Ġbark s
Ġin se
Ġso il
Ġt ax
Ġro d
Ġm en
il ing
ĠB uddy
Ġt ube
oo ped
n ger
aul if
Ġb ur
aulif l
ĠT r
Ġav ail
Ġrubb er
Ġspr ink
Ġend ed
Ġplan et
Ġambul ance
Ġg ro
Ġbo ots
Ġste ak
Ġput ting
Ġca ct
Ġstrawber ry
Ġo l
Ġmar ched
Ġjourn al
f fe
Ġdis play
ĠR ed
Dad dy
Ġc ord
Ġavail able
ffe e
se um
Ġlaw y
Ġavo c
Ġla und
Ġbreak s
ĠS ophie
Ġclimb ing
a it
Ġfl ies
Ġsmell s
Ġvi olin
Ġtri cks
Ġgo al
Ġlaund ry
Ġl end
ĠB unny
Ġpol ish
Ġshel ter
Ġstr ugg
Ġrain ing
Ġp ad
Ġju dge
Ġc aulifl
im i
Ġtax i
Ġar t
Ġmu seum
ma nd
Ġshr imp
Ġbanan as
Ġfr ame
Ġp air
Ġpr un
Ġlean ed
Ġst om
Ġyog urt
Ġbu l
Ġfeel ings
Ġpain ter
Ġthank s
ĠWh iskers
g es
Ġhead s
r on
ir on
Ġmed al
Ġbelong s
Ġqu it
ree ze
Ġcact us
Ġdraw ings
Ġd ive
Ġair port
Ġsh ort
r r
Ġfl ame
Ġhop ing
Ġin k
a zz
ur ch
Ġtreasure s
Ġeras er
Ġin sist
Ġmar ry
Ġgo lf
Ġroll ing
Ġunl ock
Ġdrop s
Ġhad n
Ġbul b
p e
Ġcup s
Ġquar rel
ec ause
Ġcaulifl ower
ĠAnd y
Ġt ub
op hy
n am
Ġsw ung
hin o
Ġstuff ed
Ġapolog ized
Ġcomplet e
re nder
Ġr ag
Ġve nd
Ġv est
ĠB un
ĠSn ow
ĠP aul
e ath
Ġpoin t
Ġp age
Ġre ver
Ġsk ill
ect ed
sel y
Ġdon Ã¢
Ġfil m
Ġeag erly
Ġw ool
ĠT ed
Ġinc l
w een
Ġimag ine
Ġfield s
Ġtr ophy
Ġco ffee
Ġhot el
ke let
ĠP apa
Ġapp l
Ġk itty
Ġkn ob
Ġdis ag
Ġon ion
Ġfoot ball
Ġbet ween
Ġshould n
pl ace
Ġthrow s
e f
Ġr hino
âĤ¬âĢ ľ
iz es
Ġche ek
os ie
Ġcount er
Ġsun set
Ġminut e
an ic
z zy
Ġimag ination
Ġy ach
Ġforgot ten
Ġphot o
Ġmu le
Ġwin ter
Ġs ym
Ġch irp
Ġperfect ly
Ġli ves
Ġla ser
Ġlawy er
Ġpe ach
Ġclo sely
Ġcher ries
Ġfrog s
Ġo il
ch anic
Ġfold er
Ġplay er
Ġtun a
Ġli e
Ġpor ch
Ġsee ing
Ġpoin ts
it o
Ġme chanic
Ġcool er
st ead
c cer
g en
Ġs kelet
Ġpo ke
Ġba king
Ġatt ention
Ġfree z
nam ent
Ġwa ving
Ġp ine
Ġmag az
sp ap
it ure
Ġk ay
urn iture
Ġaeropl ane
Ġpir ates
Ġinse ct
Ġnew spap
Ġdi ary
Ġvend or
Ġor nament
Ġa x
Ġf urniture
Ġcreat ed
ac es
s qu
Ġso ccer
Ġshout ing
Ġyach t
Ġw ife
Ġsle pt
Ġtw ink
Ġco al
Ġfle a
bo l
Ġh ut
it es
ĠR o
ĠS andy
Ġs ir
ctor y
Ġsquirrel s
Ġsym bol
C h
n ey
id es
ĠW ill
Ġmix er
Ġfire place
Ġstu d
Ġmotor cycle
Ġfa ctory
Ġmo squ
Ġvide o
Ġher b
Ġhead ed
aw s
Ġsk ull
Ġwip e
af fe
Ġch urch
Ġsur render
Ġgl ove
Ġskelet on
or ies
ck ey
ig loo
You r
Ġho ckey
Ġ igloo
In side
Ġit ch
Ġv et
Ġoff er
Ġmosqu ito
Ġcall s
Ġarg ue
Ġthe ater
Ġpet als
Ġre ef
an y
Ġgr in
Ġp it
g l
Ġax e
Ġshow er
Ġtemp le
ĠMar ia
Ġblow ing
Ġma ze
E ventually
ĠAnn ie
. .
Ġz ipper
Ġsl ipper
Ġfis her
ĠGra ce
Ġb reeze
Ġwe ather
Ġgre edy
Ġcush ion
Ġl ime
Ġslipper y
ĠB aby
Ġtra ve
Ġchick ens
cer os
Ġmeet ing
Ġsne ak
el come
Ġpo pped
Ġtra il
r ight
Ġpl astic
u es
Ġshould er
Ġoy ster
Ġfl apped
Ġcelebr ated
Ġgir affe
Ġfis hing
Ġboun cing
Ġgro cer
Ġgold en
ist ol
ors es
Ġlot ion
m m
Ġdoor s
Ġpare nt
Ġp istol
Ġbu ry
un ately
Ġv room
Ġglow ing
Ġh orses
her o
ĠM illie
Ġc able
gl ass
is on
ro d
Ġwelc omed
Ġhang ing
Ġrhino ceros
Ġno vel
Ġ iron
Ġsw amp
Ġse as
Ġsuper hero
Ġpow der
Ġbatter y
ang u
m en
Ġhop es
t ain
Ġint rod
Ġsniff ed
Ġking dom
Ġwa gs
ĠCh arlie
Ġfa uc
Ġde ar
Ġre ve
Ġrad ish
Ġsur round
Ġmem ories
Ġkay ak
Ġit Ã¢
ro sc
Ġcompl ain
Ġl angu
Ġco b
Ġstick y
w as
Ġsun glass
Ġun if
Ġsail ing
Ġsunglass es
Ġr ot
un a
Ġmat t
Ġwr iting
Ġinv est
Ġbase ball
Ġmatt ress
ĠGo d
ss ible
Ġunif orm
Ġce iling
Ġcabin et
w eb
all ey
in arian
Ġsqu e
eter inarian
Ġnap kin
rosc ope
Ġeat en
Ġclass room
Ġhapp ens
ĠU n
Ġs ub
Ġqu ack
was her
Ġc ell
Sam my
Ġb le
Ġv eterinarian
Ġfollow s
Ġinvest ig
W ait
Ġmyster y
Ġshr ugged
Ġspray ed
ĠH enry
im ney
Ġdish washer
Ġfauc et
Ġs ince
Ġign ored
Em ma
Ġstre ng
Ġc ared
med i
Ġmist akes
Ġf ought
ĠL illy
Ġfisher man
a b
Ġpass port
Ġch imney
Ġdan cer
ĠIn stead
medi ately
ĠI Ã¢
Ġmo ves
Ġv alley
Ġmic roscope
Ġag ree
Ġte ar
Ġb other
Ġst aff
ĠM imi
Ġstreng th
c ase
er c
Ġburn ed
Ġcob web
l er
v ision
Ġto il
in ked
Ġo ak
To gether
Ġblanket s
Ġthrow ing
N ext
Ġt ut
Ġpre vent
Ġh ar
Ġatt ach
Ġcollect ed
ch ie
Ġnew s
Ġy ield
Ġcan e
Ġal arm
Ġfreez er
ree k
t e
ĠJ ess
To day
Ġwe igh
Ġsepar ate
Ġc reek
Ġquiet ly
Ġwor th
Ġtoil et
Ġan ch
ĠR osie
Ġcr ow
Ġinvestig ate
Ġcho ice
Ġnewspap er
au d
Ġdis cu
Ġag re
Ġyog a
Ġt ug
Ġg ym
Ġsk irt
i ves
r s
Ġavoc ado
Ġpast ry
Ġtele vision
ang es
Ġjewel ry
Ġex erc
Ġpresent s
Ġs izes
ch air
Thank s
Ġm op
Ġve il
ĠT ony
Ġcoat s
Ġreg ret
Ġr ise
ÅĵIt Ã¢
Ġdel ay
Ġscold ed
Ġanch or
Ġs uff
Ġp ur
Ġli cks
Ġcast les
Ġwhisp er
Ġappl aud
h ouse
Ġpudd les
Q u
Ġcar ing
Ġche ss
Ġent ered
Ġstra ight
Ġflo at
B ecause
Ġra z
ĠK ate
Ġbee f
Ġap art
Ġtrust ed
ĠN ext
om es
Ġper fu
Ġimpro ve
Ġcl aws
Ġbo ot
Ġarm chair
Ġaccept ed
Ġst able
Ġf ile
Ġmusic ian
Ġt ucked
id ay
Ġbl inked
Ġdress ed
Ġkiss es
Ġop era
ĠDan ny
Ġroom s
Ġmat ches
Ġfo g
Ġmagaz ine
Ġdisapp ear
A nn
r ing
Ġde mand
ĠHe lp
Ġmake up
Ġmin t
Ġeas ily
Ġste am
Ġgr ill
Ġpe ar
Ġkeep ing
Ġwar d
Ġp ra
ĠM iss
Ġcri b
Ġbl ood
s it
Ġs igh
Ġcand les
Ġbook case
Ġtick et
Ġward robe
ĠS ee
Ġchair s
gg y
Ġworm s
Ġperfu me
Ġst ro
m end
as is
Ġsn ap
Ġsplas hing
amp oo
ĠH arry
Ġamaz ement
an ny
et y
Ġraz or
Ġtorn ado
Ġcrawl ing
Ġapp ro
Ġblueber ries
ore s
uck ily
Ġla wn
Ġribb on
Ġsqu eezed
Ġmust ache
Ġw igg
Ġpuzz les
Ġpin ch
Ġho l
Ġo asis
Ġlet ting
Ġrec om
Ġcross ed
Ġhol iday
Ġrecom mend
iv al
D id
Ġa ut
Ġr ake
Ġsh ampoo
Ġtut or
Ġwarm th
h ic
i ved
c age
Ġin f
ra ged
ĠJ ul
Ġbl ouse
Ġve hic
Ġrelax ed
ĠR u
Ġwe ep
Ġsqu eeze
Ġro ot
a h
ĠA b
I s
Ġlangu age
e ve
Ġhurt ing
Ġser ve
Ġra il
Ċ Ġ
Ġbird cage
Ġpo ked
ct ion
Ġmin er
Ġhelp er
Ġs i
le nd
Ġmuff in
up s
Ġide as
Ġwander ed
Ġwas te
ĠW ho
Ġj unk
ict ion
Ġhar b
Ġre qu
âĤ¬ .
Ġbel ow
Ġtele ph
Ġsandcast le
Ġheart s
Ġy ucky
Ġli c
bb ie
c us
Ġinc re
Ġgrow led
iction ary
ĠR e
Ġmar ried
Ġring ing
Ġshr ink
Ġf est
Ġinst r
Ġb ill
ĠS u
Ġbat he
Ġd ictionary
Ġth umb
Ġteleph one
fort unately
Ġcu b
Ġma ss
Ġplan es
Ġstrawber ries
Ġpl ates
Ġwe ap
M andy
Ġre aches
Ġsub way
Ġbe gged
Ġkne el
Ġb erry
Ġra ise
Ġsurpr ises
ĠTr ue
Ġis n
Ġfall en
Ġca lend
Ġref re
Ġcl iff
Ġsn eeze
Ġmy self
Ġfollow ing
Ġl umber
Ġbooks he
Ġmiss ile
Ġflut ter
Ġtr ade
is ing
ic ing
Ġbu ried
Ġw ine
Ġbump ed
Ġcalend ar
Ġpr op
Ġd ire
Ġim mediately
Ġunderstand ing
Ġcap tain
Ġbrave ly
Ġharb or
Ġrequ est
Ġmoment s
Ġent er
ink y
Ġd ried
Ġsn apped
Ġble ed
Ġto ng
Ġqu iz
c akes
Ġbe amed
Ġsp ear
Ġrever se
st ers
Ġcra sh
Ġwaff le
Ġbookshe lf
' ve
Y uck
Ġv ac
Ġsupp ly
omed ay
Ġlaug ht
Ġrem ove
Ġexper ience
W elcome
om ob
O k
Ġso cks
W ill
Ġg ear
Ġinv ite
am ber
ht ray
Ġblack board
Ġas htray
ĠJ ames
Ġskill s
l ier
ache l
Ġal right
Ġlaught er
Ġp ort
Ġha nger
Ġlemon ade
Ġdestroy ed
Ġaut omob
i um
ap ed
Ġdress es
or al
iss ion
Ġlic ense
Ġspark ling
Ġcudd led
Ġspot s
r iger
Ġrabbit s
Ġscatter ed
riger ator
Ġto es
Ġperm ission
Ġp ages
Ġap ron
Ġref rigerator
Ġj ail
Ġjew els
Ġhard ly
Ġtall er
Ġlab el
Ġsa ving
Ġhit s
Ġyawn ed
Ġfest ival
as p
Ġdest ination
at ie
Ġit em
Ġteach ing
Ġfu el
! '
Ġwh ip
Ġkn own
Ġinsist ed
Ġs omeday
Ġdiffere n
Ġadm ir
Ġbreat he
Ġair pl
Ġspend ing
ĠFr eddy
Ġh omes
Ġign ore
L isa
ĠM ay
Ġr ow
Ġpatient ly
ĠCl ara
uc ture
Ġbean s
Ġstr ucture
Ġbal an
re at
W ith
ĠSnow y
ĠH ave
Ġsc ooped
Ġsaf ety
Ġear lier
ĠK ing
ent s
Ġpr ide
Ġrem ain
Ġbelie ved
Ġbuzz ing
ĠIt s
Ġdecor ations
ar i
Ġsett led
Ġprep are
Ġsp ade
Ġfast est
Ġbuck le
Ġpull ing
Ġa chie
Ġwas hing
Ġl ily
op s
Ġch amber
ct ly
Ġpra ised
Ġrepl ace
Ġre s
Ġsit s
Ġrece ived
Ġdeep er
ĠPe ople
ĠF o
Åĵ No
Ġfire f
Ġb ak
at ch
Ġplay s
Ġbra in
Ġchirp ing
Ġgif ts
Ġvan ished
J en
Ġs imp
Ġspark le
ig ail
Ġr hy
xt ure
Ġappreci ate
n ies
Ġgu y
Ġcher ry
Ġflo ated
Ġspark les
Ġhill s
ant ly
Ġcr unch
Ġencou raged
Ġn one
s ing
Ġmod el
ĠE ach
Ġher s
Ġpo ison
iz ard
Ġp alm
Ġto re
Ġd are
Ġdra in
ĠO llie
Ġtong ue
Ġgl o
Ġm ention
ĠM aggie
Ġte ase
Ġm all
Ġch ores
Ġor anges
r m
s ity
Ġvac ation
P eter
Ġfl av
Ġclimb s
Ġsaus age
Ġm itten
ĠC o
Ġpan ic
ĠBe fore
Ġflo ating
Ġscrat ch
Ġstrugg ling
o sed
Ġbath robe
ĠBet sy
Ġautomob ile
Ġweek s
Ġb ang
ĠT ina
ĠI s
Ġst ad
Ġup stairs
Ġpun ish
Ġstad ium
Ġd igg
Ġsc ore
Ġresp ons
Em ily
Ġthe rm
The se
Ġwor se
Ġshoot ing
Ġme owed
Ġmass age
Ġsuff er
F l
Ġsn eezed
Ġinf ant
Ġdigg ing
Ġto ur
Ġshe d
be y
Ġst y
Ġh ate
Ġe qu
Ġrest ore
Ġsh ot
Ġsol ved
Ġexam ine
Ġmail man
Ġaw e
Ġhe sit
Ġwar ning
Ġweap on
Ġtherm omet
Ġl ugg
th m
Ġtwist ed
Ġbr ings
Ġinv it
Ġprov ide
Ġse w
M mm
Ġgrin ned
Ġbit es
os ity
Ġlugg age
A ll
Ġhe at
Ġw izard
Ġsp aces
Ġelephant s
Ġappro ached
ĠG ood
Ġbri cks
f ied
all en
Ġsp ort
Ġpart s
Ġuniver se
Ġop er
Ġbill board
S h
ĠEvery day
Ġset ting
Ġdifferen ce
Ġcollect ion
Ġneighbor hood
Ġmeas ured
Ġj azz
Ġmarble s
g ing
ĠBu zz
Ġthermomet er
an na
Ġch allen
Ġrem ained
u de
i ers
M ark
em ember
Ġthr illed
N ot
er o
Ġvehic le
Ġn ation
Ġran ch
Ġsprink les
asp oon
Ġrhy thm
Ġgra pe
Ġgre y
Ġur ge
Ġstom ach
d o
v et
Ġseat s
Ġpattern s
Ġrepe at
Ġm ister
Ġte aspoon
Ġuniver sity
Ġ V
Ġmem ory
Ġsign s
x y
Ġsupp osed
all ow
Ġairpl ane
Ġf ut
Ġfix ing
Ġslid ing
' .
Ġso re
Ġr ush
Ġfut ure
Ġgl owed
Ġact ually
Ġdiscu ss
Ġz ipped
Ġfl ood
l s
Ġd aisy
Jo hnny
Ġe mer
W ould
Ġs ings
Ġs ip
Ġg ain
Ġle ak
Ġsold iers
!" ,
ĠL ater
Ġmelt ed
Ġwis dom
Ġproblem s
Ġincl ud
Ġexerc ise
Re ady
um ble
Ġdisco very
r ise
Ġr ust
Ġwat ches
Ġt ide
Ġpo ssible
Ġra cing
Ġe vent
o ved
Ġla id
ĠN ut
e ed
Ġcon f
Ġpaint s
Ġtwig s
Ġsl ice
Ġg ust
Ġchew ed
Ġbr us
Ġcur led
J ake
ĠL iz
Ġpillow s
Ġrece ive
Ġsurround ed
Ġsp it
Ġc akes
is hing
Ġsun rise
Ġjo gging
Ġtrack s
A l
Ġour s
Ġwhere ver
Ġbe g
av id
Ġun ite
Ġcont ain
Ġmar ching
ĠJo y
ĠSome one
Ġgirl s
Ġsc ur
bble s
Ġstr ang
Ġcartoon s
u ing
Ġli ck
Ġd uring
ĠF ro
Ġsun light
Ġlet s
ĠR achel
Ġdec ision
L e
Ġpotato es
w alk
c ious
Ġman age
Ġspoon s
Ġcollect ing
b ers
Ġspaces hip
ĠL una
Ġwater ed
Ġra ised
Ġbe at
und ay
Ġpa used
Ġobser ve
Ġpo ppy
Ġpet ted
z ag
as es
Ġdrink s
Ġgrocer y
Ġoper ation
Ġch ir
E x
Ġord ered
Ġsp ill
Ġtomato es
Ġchir ped
Ġburn ing
Ġg az
ĠS unday
Ġwe ight
Ġcra shed
it ies
Ġkind ly
ÅĵThat Ã¢
Ġco pper
Ġdog gy
Ġsat is
Ġscrat ched
Ġpu pp
Ġcrunch y
ĠM e
Ġpig s
Ġearth qu
Ġfa sc
ĠSp ike
Ġside walk
ÅĵI Ã¢
ĠC at
Ġinvit ation
Y um
Ġf ed
Ġ x
Ġwork s
Ġglo ves
Ġgl itter
Ġn avy
Ġwhist led
Ġstrang ers
Ġe ff
Ġhur ric
Ġcontin ue
Ġatt ached
ĠSh aring
ig zag
Ġmountain s
ĠP enny
Ġwhist ling
f y
Ġw re
ĠS ad
Ġdr inking
Ġadmir ing
O uch
m other
ĠCh irp
Ġb es
Ġcle aring
Be fore
Ġesc aped
Ġto e
Ġgot ten
Ġscream s
Ġpeanut s
Ġfold ed
ĠZ oe
dd y
ip ment
Ġbed s
Ġhapp iest
Ġland s
Ġmen u
Ġequ ipment
Ġapp ear
he st
Ġbuild ings
Ġrem em
Re ally
Ġsaf ari
Ġoff icer
Ġhurric ane
Ġremem bers
Ġsk ipping
Ġon wards
ĠLet Ã¢
Ġf et
ĠN ot
ect ure
Ġprun e
Ġfasc in
Ġhat ed
Ġb ones
Ġprep ared
Ġrefre shed
Ġmeas uring
Ġwait s
Ġol ive
" ,
Ġpri ce
Ġhur ried
Ġnet work
Ġbes ide
Ġcom fy
Ġplant ed
Ġim age
Åĵ Thank
Ġwonder s
ĠNut ty
Ġl ecture
Ġturn ing
ĠP oppy
Ġwar n
Ġpre cious
joy ed
Ġkeep er
Ġdisag reed
R o
Ġp ies
Ġsl ip
Ġsell ing
Ġp itch
Ġrest ed
Ġpe ered
Ġme ow
Ġover joyed
Ġcre pt
Ġswim s
ad ed
Ġwood en
Ġmouth s
Ġlip s
Ġtre mb
Ġeas ier
Ġtal ent
Ġbr id
Ġstri p
Ġbri ck
Ġser ved
Ġsecret s
bb led
se ek
Ġfl ap
Ġbra nd
Ġrecogn ized
Ġbow ed
Ġreve aled
ĠSt eve
ĠRu by
Ġo bey
Ġby e
M oral
ĠS unny
l oe
Ġcomp any
Ġpray ed
ĠRe my
Ġwant ing
am b
Ġearthqu ake
ff ic
Ġcudd le
Ġbrid ges
Ġw id
Ġprin ter
Ġremind er
Ġall ow
Ġex a
Ġste el
Ġwere n
Ġdinosaur s
Ġguess ed
am ie
Ġevery day
Ġsucceed ed
Ġped al
Ġsimp le
Ġeff ort
Ġsnow ball
Ġz igzag
Ġshadow s
Ġbleed ing
Ġacorn s
Ġcomfort ed
Ġfirework s
Ġvill ag
c c
Ġran g
Ġtra ffic
L uckily
Åĵ We
Ġve l
Ġblueber ry
s on
Ġpup il
Ġtra pped
Ġapolog ize
Ġfiref ight
S usie
Ġc al
Ġminer al
Ġoat s
Ġhis t
Ġpet s
ĠAb igail
Ġcatch ing
Ġrain ed
Ġwaff les
Ġt ip
Ġs ix
Ġany time
Ġcir cus
Ġvel vet
Ġhist ory
Ġcre ation
Ġv ict
Ġsty le
Ġown ed
Ġmu ddy
igg y
Ġeag le
ĠSomet hing
Ġcut ting
Ġche f
Ġmon sters
Ġacc om
Ġsett le
is hes
Ġwhat ever
Ġg ained
Ġle ather
Ġfree ze
Ġwa ist
Ġso ared
Ġvo ices
Ġsc oop
ĠR a
Ġper ched
Ġbring ing
m are
le y
Ġvillag ers
ĠM illy
ter day
Ġsho pping
Ġdisturb ed
S omet
n ie
r in
Ġansw ers
Ġstri pes
ĠSp ark
Ġland sc
Ġpract icing
ĠCh r
m ble
Ġrespons ible
Ġb un
Ġstr uggled
O r
Ġaccom pl
Ġpad d
ĠJ e
Ġnight mare
Ġtast es
om as
Ġvisit ing
Ġtwirl ing
Ġr ipped
Ġbre aking
n eath
Ġben eath
xy gen
F irst
Ġdoctor s
Ġfa sh
Ġcuri osity
Ġdra g
Ġdown stairs
Ġeat s
Ġm ice
Ġsteal ing
Ġagre ement
Ġbr ushed
ĠChirp y
Ġexa ctly
Ġol ives
i en
ent y
ĠK atie
T weet
iz ing
ir a
Ġout do
Ġare a
Ġitem s
Ġlandsc ape
Ġcont ro
Ġcostum es
Ġtre mble
Ġlady b
Ġsad ness
ic orn
Ġun icorn
Ġarg ued
Ġgrand mother
Ġ Qu
Ġre le
Ġwr ites
ul u
Ġfam il
Ġfash ion
Ġkey s
Ġwre ck
Fl uffy
Åĵ Can
Ġreal ize
Ġact iv
ĠThe se
Ġmiss ion
Ġrecogn ize
Ġbeg in
Ġd ied
ĠM at
Ġso ak
ĠB eth
Ġsister s
Ġdecor ated
Ġexam ined
Ġb are
Ġru in
Ġperm it
ant a
Ġjo gged
ĠB ig
Ġn icer
Ġst ing
us an
Ġc aut
ĠJ an
Ġpan cakes
Ġsne aked
Ġnail s
Ġshiver ing
Ġwe ighed
Ġtick ets
Ġencou rage
Ġsi ren
Ġpe arl
ĠO l
Ġsl apped
Ġstud ied
om ing
Ġwonder ing
Ġinstr uct
i b
Ġwin ning
U n
Ġpocket s
Ġaccident s
Ġpin ched
ĠFr ank
Ġpast el
Ġstret ching
ĠC la
Ġunl ocked
R ex
Ġkeep s
Ġbe nd
Ġload ed
e ars
Ġunder ground
Ġwa gging
Ġrid es
Ġkn elt
ist en
ĠK e
Ġvict ory
Ġso aring
Ġcomp le
Ġlem ons
Ġex it
ĠL ike
bb ing
ĠF irst
Ġfire men
Ġsit u
d ing
Ġt ugged
Ġplan ned
Ġzoom ing
Ġfascin ated
Åĵ Don
Ġunder neath
Ġmach ines
Ġsupp lies
Ġwin ner
ĠHow ever
Ġpil es
Ġprop erly
Ġag o
Ġshould ers
Ġpe el
Ġo xygen
Ġz ero
Ġdraw s
Ġsatis fied
Ha ppy
Ġchallen ge
Ġru ler
Ġemer gen
Ġoutdo ors
ind y
Ġmix ing
Ġstir ring
Ġbun nies
. '
B ella
Ġbeh a
Ġgather ing
Ġcontro l
loo king
Ġinstruct ions
a les
w o
Somet imes
g ers
Ġneighb ors
ĠJul ie
ĠD avid
Ġyell ing
u x
Ġan n
ind a
ĠUn cle
ĠSt op
l en
Ġneighbour hood
D ave
ay s
th ank
Ġbro om
Ġl ines
Ġlo ving
o h
Ġclap s
Ġpun ished
Ġtrave ll
Ġintrod uc
ak y
as hed
Ġprin ted
Ġtun e
ĠIt Ã¢
Ġmus cles
Ġspid ers
Ġte asing
ĠSu zy
v a
ĠCo co
ow ers
Ġintrod uce
d ie
ĠL ucky
anna h
Ġd am
Ġfet ch
ag ull
Ġincre ase
Ġbrus hes
u ry
Ġdes er
âĤ¬âĢ Ŀ
Good bye
Ġsol ut
ic a
Ġcompetit ion
l ow
Ġlet Ã¢
Ġtouch ing
Ġbur row
Åĵ This
Ġbucket s
s hing
Ġsight s
b ies
z en
Ġbu dge
i k
Ġc ape
Ġpar ked
Ġrele ased
o ed
ay la
Ġprun es
Ġloo se
ick y
Ġdec ides
ĠAnn e
Ġst air
Ġpo king
Ġgun s
Ġt im
Ġsn ail
Ġba ked
Ġd ent
Ġse agull
Ġba bies
Ġdri ft
Ġribb ons
Ġconf ident
Ġst itch
Ġfro sting
u ke
Ġbe ard
Ġpe aches
Ġmark s
Ġmov ies
ri age
Åĵ Look
Ġste ep
H enry
Ġre lease
ĠD id
T eddy
Ġpur red
Ġstudy ing
M r
ĠRa bbit
Ġladyb ug
M ike
Ġb unch
Ġm ittens
Ġe ight
Ġcon es
Ġstr uck
ĠFl oppy
Ġprotect ed
Ġto night
Ġso aked
Ġli ed
Ġtick le
Ġrepe ated
Ġour selves
Ġhon k
A h
C l
Ġgigg ling
Ġcrow d
L ola
M ar
Ġs ides
Ġscur ried
Ġdemand ed
Ġbare ly
Ġop in
Ġsweet ies
Ġhorn s
Ġl ux
Ġmention ed
Ġv owed
Ġfood s
Ġfro zen
Ġsurf ace
Ġdrag ons
Ġstr ings
G eorge
im y
Ġcamp ing
Ġmuff ins
Ġsil ence
Ġguy s
n es
Ġsor ting
ĠS anta
Ġsh ock
Ġpe ars
Ġemergen cy
Ġdra gged
Ġrubb ing
d am
ĠA n
ick ed
Ġcr umb
Ġrainbow s
E lla
Ġm ast
ĠB ir
Ġforg i
ĠT iny
Ġch ases
k ins
Ġ 1
Ġgr ant
Ġsto le
Ġpour ing
j am
ĠA m
Jo ey
ed nes
And y
ednes day
Ġpro ject
Ġent ire
Ġe ast
Ġherb s
Ġdri ves
Ġexp ect
Ġw ound
Ġb ank
Ġcat ches
Ġpow ers
Ġin ch
Ġkick ing
uct antly
Ġd a
ĠC arl
Åĵ Hello
Ġgaz ed
b ric
Ġwe b
Ġfa bric
Ġte xture
ĠP ip
ĠZ oom
B obby
Ġsl ed
ĠBet ty
Ġv ent
ĠG r
as on
Ġur ged
R emember
ĠW ednesday
av i
Ġhig hest
Ġm ater
Ġseas on
Ġact ed
Ġsaus ages
Ġmater i
ex p
Ġrock ed
ti est
Ġbloom ed
Ġdiscover ing
Ġpret tiest
Ġboun cy
Gra ndpa
Ġyou th
Ġcaut ious
Ġprin ts
ues day
Ġgood night
Ġsigh s
Ġcomple ted
z ie
Ġ Once
M aggie
Ġch at
Ġshel ves
Ġw est
ĠCh loe
Ġchew ing
ĠBu bbles
Ġintere st
Ġpolice man
Ġch ips
Ġstri ke
Ġstamp s
Ġcut s
Ġapplaud ed
Ġcur ly
Ġtwink ling
ĠL ulu
Ġsl imy
Ġpat ience
eez ing
Ġres ult
exp ected
ĠH op
Ġsor ted
Ġplan ets
ÅĵDon Ã¢
Åĵ Oh
P ete
er n
ĠJo sh
led ge
h ins
Ġt i
es ome
Ġfl at
Ġbott les
ĠT uesday
Ġst aring
Ġbl ink
ĠC ar
Ġcont est
Ġsing er
ĠR ob
ĠT illy
Ġmot ion
Ġrel uctantly
Ġsaf er
ĠS usan
Ġth reat
Ġun expected
ber t
th ough
Åĵ Why
Ġscream ing
Ġmat ched
Ġknow ledge
Ġwait er
Ġpretend s
Ġshiver ed
u ly
Ġlibr arian
Ġachie ve
Ġsolut ion
Ġp out
ĠH oppy
Ġsn ugg
Ġpass ing
U h
Ġlux ury
Ġincl ude
Ġcurtain s
ust ed
Ġflag s
Ġaw esome
i very
Ġro aring
ĠAl ways
Y e
Ġhome work
F red
Ġrepl ac
Ġsweet s
Ġfig ured
Ġsitu ation
ĠS ure
K itty
Ġcan Ã¢
Ġgo als
Ġhug ging
Ġroad s
Ġdust y
id s
Ġsh ined
Ġw ed
Ġstick ing
Ġpebble s
Ġintroduc ed
f it
Ġsl ap
Ġcheer ing
Ġex ha
Ġs way
Ġreach ing
Ġdire ction
ĠTh omas
Ġtrave led
ĠJ amie
Ġtheir s
Ġimport ance
y ou
im mer
Ġus es
Ġmat ching
Ġbloom ing
Ġdolp hins
ĠJ ones
Ġro bb
Ġgrow l
Ġrecord ed
Ġbra very
Ġrad ishes
jam as
u zz
cu se
Ġwr itten
Ġresc ued
Ġbalan cing
Ġhe el
Ġout fit
Ye ah
Ġgre et
Ġa st
Ġdel ivery
Ġmar riage
en a
Ġbak er
Ġpat ted
Ġexp ected
Ġdisag ree
F r
Ġus ual
Le o
Ġtow els
b l
it ely
ess ie
ĠJen na
Ġpack ing
Ġzoo keeper
izz ie
he llo
Ġsc ra
Ġla p
Ġlearn s
Ġrock ing
Ex cuse
Ġmark ers
Ġinclud ed
ir ts
Ġpl enty
oy s
Ġwork er
Ġgu est
i ar
Ġman e
Ġfa ult
Ġrem oved
Ġobser ved
J ames
Ġ Yes
en ces
Ġtr uly
Ġrock ets
Ġarri ve
Ġspray ing
Ġarg uing
Ġf art
Ġle ap
Ġca used
Ġagre es
Ġflav or
Ġwed ding
Ġcreat ing
ĠH a
Ġwork ers
M rs
v in
Ġexha usted
ul ts
Ġtremb ling
n joy
Ġpart ic
Ġyou Ã¢
ĠL ou
Ġus ually
Ġpengu ins
low ly
le e
Ġprincess es
Ġheal ed
After wards
Ġstart led
Ġpray er
D anny
Ġcomplet ely
P aul
ĠB ye
Ch arlie
Ġkneel ed
S ophie
Ġst are
il es
Ġvan ish
or a
Ġbe lly
Ġopen ing
Ġsu itc
Ġwander ing
Gra ce
Ġd ared
ct ions
Ġpa jamas
ĠSad ly
Ġgrow ling
Ġrest ing
Ġtim er
Ġf ir
Ġsp ike
Ġfl ames
Ġpaint ings
How ever
Ġch uck
ac ob
Ann ie
Ġl amb
Ġth ro
Ġsc ales
as m
Ġsn akes
Ġregret ted
Ġquack ed
Ġdent ist
Ġrep ly
ĠJess ie
Ġcrumb s
Ġthro at
Ġwor ries
Ġvent ured
m as
id ing
Ġclos es
Ġcrack ers
ĠChr ist
Ġstrugg le
Ġhe av
Ġstore keeper
ĠCla ire
Ġtwink le
Ġrelie f
Ġpencil s
.. .
Ġfir m
Ġwas ted
Ġscr u
Ġreve al
ĠJe ff
g o
Ġsees aw
Ġorgan izing
Ġrub s
Ġw ink
Ġc ent
Ġran ger
Ġfair ies
Ġwasn Ã¢
Ġmiss es
Ġb oo
Ġro ots
Ġcom m
Ġpot s
he ll
Ġg a
ara way
ang led
Ġinv iting
Ġreplac ed
Ġst ern
ĠB oth
ĠM art
ĠA unt
ĠF or
Ġrem ote
Ġcrab s
Ġpoem s
Ġun ited
ver s
Ġevery body
Ġf araway
un e
Ġroll s
Ġdes ert
p er
Ġown ers
Ġtra ctor
Ġcountry side
Ġr isk
Ġbo om
Ġpol ishing
ĠLe ave
Ġpartic ular
Ġknight s
ĠChrist mas
Ġc ott
il o
Ġval ued
Ġmelt ing
Ġaccompl ish
d ies
Ġbe ad
Ġpol ished
Ġpadd led
Ġyou nger
Ġnap s
p ite
at y
op es
Ġdire ctions
M ittens
Ġlead er
a a
Ġpast ries
Ġteac hes
ĠO ut
Ġwire s
Ġsing le
Ġpee king
Ġwin ked
Ġcrack ed
ĠFo llow
Ġactiv ities
Ġitch y
Ġbalan ced
ĠB y
Ġdark ness
ig i
Ġun f
bo at
ĠBe ing
Ġga ze
ĠP ipp
Ġwr ist
oph ia
Ġhelm ets
is ies
Ġlo gs
B ad
Ġf reed
ĠDo lly
Ġseem s
Ġsw irl
Ġsneak y
Ġinterest ed
F ine
ĠM ad
Ġhow ever
ol ine
Ġphot os
Ġbec oming
Ġc ause
Ġtrip s
ĠUn fortunately
M illie
ĠMom o
Ġsign ed
Ġda isies
Ġrecord ing
Ġst em
Ġfore head
Ġcolour ed
r ance
ĠP ut
Ġyes terday
Ġfu zzy
Ġfa ced
Ġlollipop s
Ġc ough
ĠĊ Ġ
Ġwigg led
Ġsnowball s
Ġ Y
Ġc ash
Ġd ipped
Ġsque aled
E llie
Ġchuck led
Ġrest ored
ĠJohn son
Ġgrocer ies
ĠMat t
Ġref le
Ġpast els
Ë ľ
âĤ¬ Ëľ
Ġsl am
R ose
Ġsplas hes
A b
Ġw ow
Ġdeterm ination
Ġr ings
Ġne ct
Ġcautious ly
Ġnect ar
ĠS orry
Ġsw ooped
Ġfirefight ers
Ġh i
Ġd en
ĠL inda
Ġl ined
Ġstay ing
Ġfill ing
A lex
ĠA bby
Ġbowl s
Ġmar ked
Ġcop y
Ġp iggy
ĠJ u
Ġb umpy
Ġc ous
Ġhis sed
bb ly
Ġsn at
Ġblow s
Åĵ Mommy
Ġsil ent
or ds
ĠM any
Ġtw in
Ġmask s
Ġsandcast les
Ġflutter ed
Ġopin ion
Ġti pt
S andy
ĠB ird
ĠL uke
Ġtri cked
Ġbak ery
Ġa ff
Ġr ipe
Ġhand ful
Ġprov ided
Ġact ions
Un fortunately
c ited
Ġso bbed
Ġno on
M ay
Ġs ense
H arry
Ġcan s
Ġtrick y
Ġl ung
Ġro ses
Ġstay s
Ġadd ing
Ġtall est
rr rr
ĠKe ep
Ġk ites
Ġcon n
To by
Ġtick led
Ġwe ars
ĠW atch
ĠE njoy
Ġde al
Ġse ven
Ġsome body
Ġheal th
pp ers
Ġlisten s
Ġseek er
Ġbead s
Ġback ed
Ġdark er
Ġprotect ing
Ġstro ll
ar ter
il ity
ĠO w
Ġple asure
Ġsuitc ase
Ġbump s
ĠBu zzy
Ġdeliver ed
b oo
y ond
Ġbe yond
ĠQu ack
K ate
ĠP inky
Ġcelebr ation
S ome
Ġt y
ĠB o
Ġfro ze
Ġlight er
Ġb ars
ĠT ara
Ġent rance
Ġcover s
R un
Ġth orn
Ġmil es
Ġaw ake
ĠM o
Ġsec ure
Ġatt ack
ÅĵWhat Ã¢
Ġfart her
Ġinsect s
rin cess
S ad
ĠDo ggy
Ġhid er
Ġscar ves
Ġcub es
ĠP andy
he e
Ġbad ge
ĠFo x
Ġcash ier
B l
Ġli qu
Ġsm arter
Ġyour selves
ĠF riend
Ġcow b
Ġped als
Ġsto len
Ġmagn ets
ĠSu zie
Ġg lee
Ġkick s
ĠNot hing
Ġcal med
um m
Ġexplore rs
Ġafter wards
or med
Ġjo king
co at
Ġcolor ed
aff es
? '
Ġspe aking
Ġin sp
Ġkne es
au ra
ĠK ayla
Ġsal ty
Ġknock s
th s
Ġgir affes
Ġbegin ning
Th ose
an es
Ġseas hell
B un
Ġc ust
Ġinstr um
N ina
Ġm es
Ġbeh avi
Ġste er
Ġpart ies
Ġachie ved
Ġglass es
Ġrecommend ed
Ġmes mer
ĠJess ica
ri ous
ĠL izzy
se qu
Ġread s
Ġwip es
Ġtalent ed
n ers
Ġo pp
?" ,
Ġrain coat
Ġbuy ing
Ġcand ies
Ġcomplain ing
Ġcust om
Ġru le
r ig
t le
Ġm i
ĠT wo
Ġte ased
Ġcon sequ
n o
ĠA dam
br ush
Ġch oo
ĠG et
Ġmi xture
an a
Ġmark er
Ġind eed
ĠT ess
ĠEvery body
Ġcompl ained
ĠM on
ĠL uckily
Ġimpro ved
Ġcl ick
Ġsail boat
Ġfold ing
ĠHa ppy
Ġliqu id
Ġp ause
ĠW ater
Ġt angled
itc hes
o ssible
ar ling
Ġact ing
D ays
b and
il ed
ĠS lowly
ĠE arth
Ġimp ossible
Ġsmile y
umb ling
ch oo
Åĵ Do
Ġcheek s
Ġweep ing
Ġsnat ched
are n
ĠM ick
Ġsc aring
Ġw ins
ĠS qu
ur ry
Ġtask s
Ġstro ked
Ġrust y
Ġpout ed
at ul
Ġwe e
ĠG igi
Ġvide os
Ġpad dle
Ġchef s
it ched
Ġcream y
Ġcho ices
iv ity
Ġfamil ies
ep t
Ġhesit ated
ind r
ĠP l
Ġswims uit
Ġconsequ ences
ĠL izzie
Ġbed time
Ġexper ien
t uce
Ġth ird
st ep
Ġsh irts
ĠM a
Ġra indr
Ġlet tuce
ĠP rincess
ĠJ on
Ġclown s
Ġbur st
Ġr umble
ĠC he
ĠC indy
ĠJul ia
Ġscru bbed
ĠH annah
ig ers
ĠJ azz
Ġcreat ivity
Ġdrum s
Ġbeha ved
ik i
Ġd ots
Ġsw ept
Ġst ung
Ġneed les
Ġsn uck
Q ue
b ell
ĠM ira
Ġfl apping
Ġcelebr ating
Ġlead ing
Ġaccomplish ment
Ġhe aring
ĠN ina
ab el
Ġwid ened
ou ch
Ġl ower
Bob o
Ġgem s
Sh h
Que en
v est
Ġtravell ed
T ime
al ph
Ġwouldn Ã¢
Ġpeace fully
Ġjack ets
o ey
Ġne ither
Ġpoin ty
Ġpay ing
rig ued
Ġyell s
ĠM el
Ġcup cakes
Ġdi ving
Ġarrow s
an s
Ġwra pping
G reat
Ġsnow men
Ġpupp ies
Ġflutter ing
ĠOl ive
P olly
Ġru ining
c ope
at ur
ĠS ophia
Ġwill ing
Ġgra bbing
Ġde f
Ġbase ment
ĠR obby
Ġpass en
Ġc or
Ġback wards
Ġtemp er
c ers
Ġmateri als
ĠE l
Åĵ Wow
ang ing
Ġobject s
Ġscrew s
Ġstom ped
Ġast ron
d ed
e al
p are
Ġsour ce
Ġmushroom s
Ġhall way
Ġsi bl
ĠGood bye
Ġdrift ed
Ġraindr ops
Ġsibl ings
T ina
k y
Ġt igers
ĠS que
Ġbe am
Ġbatter ies
ĠMike y
Ġ ĠĊ
Ġdeser ve
Ġscrat ches
Ġsecond s
Ro ar
c l
Åĵ Hi
end y
Ġhor iz
Ġann oy
Ġe ch
Ġr ip
Ġplay ers
el ia
ish y
Ġwon Ã¢
Ġgrace fully
Ġtipt oed
Ġastron aut
Ġhoriz on
y an
M illy
Ġfe ver
Ġdoll house
Ġriver s
Ġcudd ly
Ġavo id
ÅĵYou Ã¢
Ġlo sing
Ġare n
Ġhid es
immer ing
Ġwa dd
Ġch op
Åĵ Come
Ġsquare s
Ġl un
Ġfe ars
Ġmagic ian
ĠWith out
Ġpan s
ĠBlue y
L illy
Ġsprink led
Ġ Queen
ong r
Ġgrow ls
P at
Ġg ross
ĠJ acob
Ġperform ance
Ġart ist
Ġh us
ĠB inky
Ġre pa
ke nd
Ġgrass y
ongr atul
Ġornament s
W h
n e
Ġtr amp
Ġwee kend
m allow
arsh mallow
Ġtem pt
R u
Ġbel oved
Me ow
Ġgrand pare
Ġl imes
ĠD r
Ġneighb ours
H ave
Ġsa le
nt il
itt ed
Ġch ip
Ġaff ord
d ri
o or
Ġforgi ven
Ġrepa ired
D an
Ġm er
ig ning
Ġunpack ed
Ġstud ents
Ġminer als
ĠSpark y
Ġwrap s
Ġdam age
Ġa ud
Ġr ising
Ġfa ct
Ġwind y
Ġdream t
oun ce
Ġtramp oline
F or
Ġspark s
Ġforget s
ĠL arry
Ġad ult
Ġcon cer
Ġac he
Ġtemper ature
Ġsnow fl
Ġst ain
Ġst ool
ĠA bbie
Ġno ses
Ġam ong
Ġhus band
Ġd arling
ĠM ilo
ĠE ls
T r
st y
ie ce
Ġprin ting
Ġre fu
Ġprom ises
ad es
Ġslam med
P e
Ġdad s
ak er
ĠR emember
Ġrec ipe
Ġdecor ating
Ġwis hing
Ġsepar ated
Ġw oof
Ġhead ing
Ġsail ors
Ġzebra s
Ġm arshmallow
Ġsl ices
Ġhesit ant
A n
Ġenthus i
E w
Ġtree house
Ġtunn els
Ġreward ed
Ġtriang les
ll en
Ġz ipping
Ġsunfl owers
Ġenthusi asm
W oof
y es
Ġre ass
Ġbo dies
Ġrust ling
Ġsnugg le
Ġcous in
Ġpret t
Ġgas p
Ġswan s
ĠSn ugg
Ġneat ly
Ġwarn ings
B aby
Ġto uc
ment s
ĠMick ey
Ġh itting
Ġg ri
Ġme als
ĠAs h
Ġlean ing
Ġdiscu ssed
Ġinclud ing
Ġcent er
Ġta pped
Ġsurround ings
Ġon ions
Ġtail s
Ġfeed ing
Mar ia
ĠMart ha
Ġg e
ĠS un
us hing
Ġwr ink
Ġplan s
Ġpress es
Ġrefle ction
Ġaud ience
B oo
W hee
Ġdoll ars
ĠFin n
u rious
Ġc oup
Ġdan ces
Ġborrow ed
ĠP r
Ġun s
ĠTo dd
F in
O ops
on i
Ġint rigued
Ġprett ier
it ion
im on
Ġpe cked
Ġcount s
Ġwip ing
Ġfork s
it ude
Ġhands ome
ĠZ ip
ĠRo ver
Ġe arn
Ġgrant ed
Ġrobb er
Ġthr own
ĠR ock
Ġcre ations
Ġimag ining
Ġpray ing
w k
Ġag e
Ġblock ing
ho g
ab ly
- -
ed s
Ġbow s
Ġstreet s
ĠSnugg les
Ġre ason
a el
Ġplan ning
Ġshr inking
Ġheav ier
un ched
Ġsp ikes
Ġhelp ers
op sy
Ġslow er
Cl ara
Ġdo d
Ġdesign ed
Ġtouc hes
Ġrequest ed
Ġcoup le
ĠJ ay
Ġsuperhero es
M iss
u zzy
Ġgo bbled
fu s
ich ael
Ġdeliver ing
Ġh our
Ġwa g
Ġch os
Ġembarra ss
Ġchos en
f all
ĠH oot
ĠL aura
Åĵ My
Ġspread ing
D ucky
ĠEm my
Ġbuzz ed
Ġ1 0
J ul
ar mer
Ġpe ppers
Ġtw ice
K atie
Ġd et
Ġgarden er
Ġpol ar
Ġstar fish
ĠZ oey
B y
B ill
O ur
t he
v il
Ġm erry
Ġn ine
Ġar r
Ġcolor ing
Ġbath s
us ing
Ġdi ved
Ġscrew dri
F o
Ġhero es
Ġn ibb
Ġsc amp
Ġfe ast
Ġco nd
ĠF ire
Ġwo bbled
Ġcorn ers
ĠFro g
Ġge ese
S urpr
Ġha wk
ĠThank s
ĠRo bert
cc oon
Ġgreet ed
Y ummy
j o
Ġra ccoon
Ġremember ing
Ġmus cle
Ġsea w
Ġshop s
Ġfamil iar
re y
Ġsp ong
Ġhedge hog
Ġpupp et
Ġpo ss
Ġpu ff
Ġpot ion
i ppy
ar row
Ġch anging
Ġhop s
Ġhope ful
Bl ue
ĠB ee
ent ly
Ġtest ed
Ġbreat hed
Ġcor re
Ġpl ucked
Ġfl as
oun ced
ĠAb i
ck y
Ġforget ting
Ġvan illa
ĠNo body
Ġgrandpare nts
Ġpl ain
ĠP am
Ġshap ed
ert ain
ĠU ntil
Ġscrewdri ver
Ġas ide
Ġpo ster
ĠO wl
Ġsniff s
ĠMay a
f ly
Ġcurious ly
Ġfirefight er
ĠFriend s
Ġseaw eed
Ġstand s
Ġbl ast
ott en
Ġsque ak
ad os
Ġle ast
ĠBir thday
Ġscra ped
Ġso fter
Ġsn eezing
Ġcra ft
Ġnap kins
Ġdriver s
Ġmatter s
Ġd ie
Ġco c
Ġpop s
Ġt iss
Ġn ur
ĠL ena
ĠTh ose
Ġlift s
Ġspoon ful
Ġhon ked
Ġthu d
Ġp ens
Ġbu lly
Ġrespect ed
ĠSad ie
N emo
Ġwigg le
Ġmesmer ized
c used
Ġm unch
ĠL isten
Ġfo cused
Ġjoy ful
Ġr otten
Åĵ Mom
Ġcra shing
Ġneckl aces
Ġlun gs
Ġto dd
Ġd aring
ĠE x
ĠR yan
Ġtalk s
in o
st ick
Ġgl ued
Ġwarm er
Ġexp ress
Ġbell s
Ġspong e
Ġg est
ĠJack y
Ġflav ors
Ġp ins
ĠS c
Ġwor n
ara c
ĠC ra
Ġcre w
Ġthrough out
Ġr opes
Ġal ien
atter ed
ĠSt ella
Ġmarshmallow s
ĠT ake
ch ild
Ġsk unk
Ġsend ing
Qu ick
Ġde fe
Ġdro pping
Ġsew ing
Ġsport s
J erry
ĠSt ar
Ġlead s
b ird
im ent
Ġr out
Ġne are
ile y
Ġpen nies
B r
Ġfl ight
Ġsl ips
ĠN ick
Ġwhisp ers
Ġguest s
ir rel
Ġsw ords
ast er
Ġdan cers
Ġjoin ing
Ġavoc ados
ĠGr anny
Ġm oo
Ġsa n
Ġon ward
ug s
Ġgrand child
Ġstack ed
Ġwe pt
ter s
ion a
Ġexpl o
Ġdra wn
Ġwr igg
ĠMe g
Ġn ood
Ġr ushing
Ġro ars
Ġwo bbly
Ġdress er
Ġtoast er
Sad ly
me al
ye ars
Ġyield ed
ĠFro sty
Ġleap t
Ġto ssed
ĠJ une
Ġpan icked
Tweet y
Ġfreed om
Ġthat Ã¢
all owed
Ġsw allowed
Ġmin ts
Ġresp ond
ĠSt ay
Ġprep aring
Ġincre ased
Ġd ip
Ġpro ve
ĠOn ly
Ġresist ed
u pt
ĠA ng
Ġpe ck
Åĵ Well
ĠRo bbie
Ġwa kes
Ġp ours
ĠO ur
Ġoat meal
Ġquarrel ing
Ġsuffer ing
Ġsan k
B et
Ġo cc
Ġsp ins
ĠW endy
Ġgrow s
Ġrefre shing
Ġprop er
V ery
ĠH oney
ĠL ove
Ġch arac
Ġtiss ue
id o
Ġe vil
Ġsc en
pl ash
Ġbit ing
Ġdraw ers
K im
Ġo h
Ġtable s
Ġtwist y
Ġwater ing
Ġlift ing
ĠJan ie
v ant
Ġsp at
Ġbl inking
Ġdoor way
Ġstrong est
Ġpost man
Ġwadd led
L ike
S u
ĠW ally
Ġco sy
ret ty
Ġtr ot
Ġhuman s
Ġtremb led
b age
e el
Ġsqu ishy
Ġam ount
Ġgar bage
Ġscamp ered
Ġa imed
on na
Ġsp ices
ĠThat Ã¢
Ġencou rag
p lease
w hile
bb a
Ġoy sters
ro ken
ĠF armer
Ġduck ling
Ġperf ormed
.. ."
ĠSque aky
B ack
Ġs y
Ġf aded
Ġmon ths
Ġste ady
Ġlesson s
Ġdesign s
W atch
Ċ Ċ
Ġcl ues
Åĵ Now
Ġfit s
Ġnervous ly
Fr ank
Ru by
Ġsa dd
Ġang els
d ress
Ġp ound
ĠB essie
ect ion
ĠK iki
Ġm ate
Ġplay room
Ġbeha ving
M ine
b ut
le ts
Ġcon fl
Ġcold er
Ġappreci ation
Ġuns ure
D uring
ĠT una
Ġplay time
Ġsc ient
ĠL i
Ġbra vest
Ġca using
ĠZ ara
Ġshark s
Ġpige ons
Ġmast er
Ġpassen gers
Ġscient ist
in t
Ġg ears
Ġn apping
Ġsh ady
Ġman ag
ss ss
ĠFl opsy
Ġload ing
Ġsurrender ed
Ġg onna
Ġin j
bb ling
Ġpol itely
Ġbreat hing
Ġrever sed
Ġtwink led
m ates
Ġthought s
Ġheal ing
rr r
Ġfirm ly
Ġwar ri
Ġel f
ÅĵI f
Ġech oed
l ves
Ġnot es
Ġsl ither
Ġrain y
Ġdef in
c ake
Ġc ongratul
Ġk ittens
Ġgrand d
o dy
Ġ 2
Ġre un
ant ha
Ġfle as
ĠJu dy
Ġgu ide
Ġpack ages
Ġsell er
Ġthorn s
Ġpr ob
ĠG reen
Ġbit s
Ġsqu eezing
eez es
ĠSqu irrel
Ġprob ably
f ire
ay ing
pp ies
Ġoff ic
Åĵ Where
Ġhair dress
Ġres ults
b roken
Ġt ies
Ġn uzz
T ony
an while
Ġu nd
ry ing
ĠW ell
Ġcon vers
ĠAl ong
Ġnood les
M ad
Ġc oug
dd ie
Ġover come
Ġbat tle
Ġpump kins
Ġsnowfl akes
he w
Ġnear ly
Ġgigg les
Ġfrown ing
Ġcush ions
Ġencourag ing
Ġf ant
en ing
ĠM ouse
Ġpath s
Ġdefin itely
Ġt il
Ġc oral
Ġn i
es pite
Ġsc ored
Ġtable t
Ġlay ing
allow een
Fo llow
Ġhairdress er
Ġsh own
Åĵ But
Ġdist ract
Ġmer ma
Ġgest ure
c her
Ġun w
Ġrain s
Ġsail s
Ġcloud y
Ġstream ers
Ġwid er
? !"
ĠH alloween
ĠB aa
Ġk ings
Ġfrown s
L isten
on ies
Ġad ults
Åĵ Okay
ast y
Ġremind ing
Be ep
Ġshovel s
Ġbehavi or
Ġc ertain
Ġfin ishing
Ġblock ed
Ġforgi ving
E ven
Ġt ipped
Ġsn ort
Ġtravel s
Ġt uck
Ġso aking
Ġbr u
Ġwater fall
Ġtight er
Ġpassport s
Ġtri cycle
Ġband ages
Ġperform ing
Ġa is
Ġfl own
ĠG ina
Ġbelie ving
Ġrobot s
Ġaccompl ished
ĠLou ise
T ed
o ke
Ġs ou
Ġe ase
Ġsweet est
Ġdam aged
n ow
Ġkn ots
Ġqui eter
Ġpaint brush
Ġcross ing
Ġfant astic
Ġj ars
Ġact ion
Ġpuzz led
ĠU p
Ġinstrum ents
a bby
ĠE va
Ġpo ppies
Ġpay s
ĠU nder
Ġappreci ated
T ake
Ġsmall est
ĠR ay
Ġworry ing
Ġheart broken
Ġign oring
Ġed ges
Ġsuggest ion
mand a
Ġconn ected
an ie
Ġan ger
Ġpe as
Ġsl ipping
Ġsur v
Ġship s
Ġcott age
Surpr ise
d a
Ġp onies
id er
âĤ¬ ,
Ġch anges
Ġsuit s
Ġtodd ler
Ġr ather
Ġbus es
Ġcho pped
Ġpunish ment
Ġbrus hing
Ġcomm un
M ira
Åĵ Please
Ġfill s
Ġcobweb s
ĠT w
Åĵ Of
Ġexplore r
ĠR alph
Ġtwist ing
Ġsniff ing
Ġtravell ing
c a
Ġhand ing
und red
Ġloop s
Ġped aled
Ġlend ing
Ġsymbol s
Ġfiref ly
ĠChr is
Ġrisk s
ĠPipp in
Ġocc as
e edy
ĠAl though
Ġrepe ating
ĠAm elia
c ent
f ound
i bbit
Ġhe ight
Ġse ver
ĠF ido
When ever
Ġfin al
Ġclean er
ĠAl i
Ġlick ing
Ex cited
Ġcowb oy
Ġb less
Ġst itches
lp h
Ġcudd les
Ġconfl ict
Ġsever al
Ġtow ard
Ġbel ts
Ġwhist les
ĠQu ick
ĠAsh ley
v room
ĠS imon
ĠI m
Ġwis ely
Ġmagn if
Ġsurf ing
Ab igail
Ġy um
ĠB ecause
Ġcomfort ing
Ġhum ming
Ġluck ily
step s
Ġreass ured
Ġgrandd aughter
Ġd arl
Ġy el
Ġre app
Ġv ines
iss a
St eve
Ġpur r
ĠFro ggy
per ate
Ġcott on
Ġdarl ings
on nie
Ġfl ipped
Ġadd ress
Ġswe at
Ġrespons ib
Ġcorre ctly
Ġyel ped
J amie
ight ing
Ġeffort s
ĠBir dy
V room
w he
is c
is ions
Ġdisturb ing
Ġspit s
ook y
Ġsto pping
ath y
Ġdr own
Ġdrive way
fl ies
Ġfis hes
G et
Ġ X
Ġt ying
Ġn asty
pp a
Ġwith in
Ġwho se
ĠJack ie
Ġaf ar
Ġfoot steps
Ġbrace lets
i el
Ġwo bble
Ġs ill
Ġwe eds
ĠM ichael
ĠL ia
iz a
Ġunderstand s
Ġcoll ap
Ġswe ep
Ġenc ount
Ġsuff ered
Ġseashell s
M imi
ĠT ry
on se
Ġche ers
Ġbra ver
Ġcon qu
Ġsmell ing
Ġel bow
Ġresp onse
Ġple aded
eel ing
Ġreun ited
S ince
ong o
Ġco ach
Good night
Ġant ic
f ia
Ġ Okay
Ġnew found
Ġsupport ed
Al right
ĠPipp a
Ġsp ies
Ġdec isions
Ġbasket s
ide y
Ġmar ve
ugg ing
Ġguess ing
Ġsimp ly
m s
ĠM abel
Ġfo cus
Ġmail ed
Ġimag es
Ġcrown s
Ġspell s
Ġvehic les
Ġmast erp
Ġnur ses
Ġoffic ers
in ted
Ġsa v
Ġli es
Ġbird house
ail s
Ġdes pite
Ġexam ining
Ġaw oke
Ġbother ing
Ġpupil s
Ġcongratul ated
c row
Ġm ood
ri e
ad ing
Ġme mb
Ġcover ing
Ġcamp fire
Ġarr anged
Ġmemb ers
B unny
Ġd ump
el ie
Ġsp ed
Ġex cept
ĠF uzzy
Ġtast ing
Ġcalm ly
Ġinsp ired
D avid
H annah
Ġsh oo
Ġgood by
iv ia
Ġsurf board
Ġgaz ing
Tr ue
Ġtrot ted
er k
Ġqu e
Ġra ces
Ġstor ed
Ġforest s
Ġbury ing
Ġgri p
Ġgoodby es
m ies
o llen
u el
Åĵ Hey
Ġban ged
o lph
Ġt ar
Ġh undred
Ġl ent
dd ing
Ġsw ollen
ĠJo an
Ġbus iness
ĠK aren
ud olph
p en
ac les
ĠDave y
Ġcustom ers
Ġwrink led
l ine
Ġb uddy
ut ter
Ġr in
Ġsp y
ĠE lly
so l
Ġexerc ises
Ġdelay ed
Ġwhisper ing
P enny
Ġla pt
Ġjo ins
Ġscr am
Ġwarri or
ĠW il
ac le
Ġfigure s
Ġapolog ised
Ġdisplay ed
Ġspill s
Ġpeel ed
a ven
w orm
Ġg ap
Ġsurpr ising
Ġgen ie
Ġmagaz ines
Ġencourage ment
m ered
Ġm aker
or der
Ġni bble
Ġmasterp iece
Ġd ep
Ġch illy
em ma
ĠDo g
Ġteacher s
Ġpresent ed
Ġwound s
r up
Ġwas ting
Ġpo sit
Ġpri ck
Ġspeed ing
Ġdiscuss ing
atur day
Ġlapt op
ĠS aturday
Ġst all
ĠA ny
ust y
ĠF ighting
ĠSp eedy
ĠPat ch
Ġsew ed
Ġmateri al
Ġmerma id
Ġtar get
Ġd ot
Ġp uck
Ġin ter
Ġst umble
Ġsp ooky
Ġcl erk
Ġal though
Ġtre ated
ink le
Ġwarm ly
Ġplant ing
Ġtire s
Ġtub es
r ily
Ġsqu aw
Ġfire s
Ġpurp ose
Ġbelong ings
ĠSnow man
Ġexperien ced
Ġaw are
Ġwindows ill
Ġstom p
Ġscur rying
Ġglitter ing
Ġconcer t
Ġque ens
w e
w ise
Ġta pping
Ġfin s
Ġactiv ity
Ġsy rup
Ġg er
ri an
ec ca
Ġsc ent
ĠD ory
Ġthan king
Ġun fortunately
ĠR ain
Ġdragon fly
Ġtrouble s
Al ways
ĠQuack ers
Ġrefu se
Ġnibb led
A ny
J essie
f ather
i ens
Ġal iens
ell e
Ġsw ap
Ġtr ans
Ġjo ked
Ġunt ied
ip es
Ġscare crow
Ġweal th
ĠMar ie
Ġcryst als
Ġwigg ly
Ġemer ged
ri er
sc reen
Ġsol ving
Ġclass mates
ĠZ oomy
Ġord ers
Ġarg um
Ġlab els
re st
art led
Ġfl ips
Ġexp ert
ĠSt e
Ġexplain s
Ġstud ent
Ġsque aked
Ann e
ĠMad die
Ġannoy ed
h il
Ġdec l
ĠD uck
Ġdoor bell
ĠSp idey
Ġdis c
Jo sh
ĠBu bba
Ġadmir ation
Ġcoc oon
r is
y l
ĠS k
Ġr ays
Ġtw eet
Ġperm itted
ĠF iona
Ġpe ep
Ġju d
Ġfox es
Ġtest ing
Ġart work
Ġforgiven ess
am my
Ġex ch
ĠEll e
Ġpri z
Ġbackpack s
rrrr rrrr
Ġattack ed
Ġscram bled
Ġtrans f
K e
Ġlo c
ĠE ddie
ort unately
Ġtool box
Ch loe
Ġrobb ers
ĠEx cited
ĠB ongo
ch y
ĠW elcome
Ġsun screen
illi am
Ġpur rs
Qu ack
A m
J ess
ing er
ig hing
Ġlo ses
Ġve gg
Ġser vant
Ġtwist s
Ġterri fied
ĠPat ty
D ear
ĠA lly
Ġno dding
Ġtid ied
Le ave
Ġstern ly
Ġty pe
Ġantic ip
Ġb itten
ĠJane y
Ġhon king
Ġstro ke
A dam
l o
Ġb ou
ri ck
ĠM ina
Åĵ See
ĠR udolph
Ġastronaut s
Ġbou qu
J oy
Ġch arge
Åĵ The
C ar
R achel
g ain
Ġ icing
Ġre ly
ort un
Ġgrand son
Ġmis chie
Ġmosquito es
Ġmischie vous
Ġt ing
Ġse als
Ġfa iled
Ġunt ie
Ġcon vin
ĠO ther
Ġchocol ates
Ġpray ers
Ġopp ortun
Ġbeam ing
Ġconvers ation
isc uit
Ġa im
Ġto ss
Ġspr out
St ay
Ġpand as
B oys
J e
P oppy
R osie
w hat
Ġdon key
Ġcle ared
Ġdis o
Ġdiamond s
ĠAng el
Ġencount ered
ĠS plash
oo king
Ġte les
Ġbeauti fully
Ġzoom s
Me anwhile
Ġresc uing
Ġteles cope
s m
y ler
ag ic
Ġend s
ĠSt an
Ġinsist ing
Tweet ie
Ġneare st
B eth
T wo
Ġwh imp
Ġyoung est
Ġlow ered
Ġswe aty
ab ra
Ġtil ted
Ġs ens
id ence
am ma
ĠD espite
ĠFred die
Ġaeropl anes
Ġopp os
Ġrout ine
Ġsh immering
ĠL ion
Th omas
Ġbright est
Ġcrawl s
Ġmill ion
Ġlip stick
Ġrespond ed
Ġmate y
Ġanticip ation
Ġh oo
at s
Ġbe ating
ain t
ĠFl o
Ġturt les
Ġgoat s
Ġstat ues
Ġtap ed
it s
Ġdress ing
Ġbeep ed
Ġmeow ing
Ġsurv ive
Ġvegg ies
ĠS w
Ġin ches
Ġbe a
ĠD ino
Åĵ Sure
Ġdri pping
ĠK aty
Ġghost s
ĠRob o
Ġoppos ite
B ang
m unk
Ġbl ond
ĠR uth
Ġvisit s
Ġscrat ching
Ġvi br
Ġquar re
Ġsway ed
Ġsteer ing
Ġais le
oo sh
ĠB ow
Ġsh all
rom ise
Ġman ners
ĠYou Ã¢
ild a
Ġbee h
ord inary
Ġrec order
Ġtidy ing
Ġbreath s
Ġgrand father
Ġfilm s
O ut
ĠA manda
Ġdan gers
Ġvisit ors
Ġseagull s
Ġunw ra
Ġdecl ared
h ind
ĠH old
ĠBe cky
Ġrot ting
Ġincre asing
C la
Ġhe n
il ities
Ġsw itched
Ġobey ed
ĠJe an
Ġsway ing
Ġdod ged
l or
Ġgr at
Ġpicnic s
Ġrob in
Ġcheck out
Ġenv iron
Ġdiscover ies
Ġquestion ed
Ġcowb oys
Ġcustom er
Ġmanag er
Ġargum ent
M at
ĠJ ax
Ġchip munk
Ġenviron ment
p it
Ġr umbling
Ġtw enty
ct ric
